node {
  name: "x"
  op: "Placeholder"
  attr {
    key: "dtype"
    value {
      type: DT_FLOAT
    }
  }
  attr {
    key: "shape"
    value {
      shape {
        dim {
          size: -1
        }
        dim {
          size: 100
        }
        dim {
          size: 9
        }
      }
    }
  }
}
node {
  name: "unused_control_flow_input"
  op: "Placeholder"
  attr {
    key: "dtype"
    value {
      type: DT_FLOAT
    }
  }
  attr {
    key: "shape"
    value {
      shape {
        dim {
          size: 128
        }
      }
    }
  }
}
node {
  name: "sequential/lstm_1/Identity_2"
  op: "Identity"
  input: "sequential/lstm_1/Read_2/ReadVariableOp"
  attr {
    key: "T"
    value {
      type: DT_FLOAT
    }
  }
}
node {
  name: "Func/sequential/lstm_1/PartitionedCall/input/_5"
  op: "Identity"
  input: "sequential/lstm_1/Identity_2"
  attr {
    key: "T"
    value {
      type: DT_FLOAT
    }
  }
}
node {
  name: "sequential/lstm_1/PartitionedCall/while/enter/_23"
  op: "Enter"
  input: "Func/sequential/lstm_1/PartitionedCall/input/_5"
  attr {
    key: "T"
    value {
      type: DT_FLOAT
    }
  }
  attr {
    key: "frame_name"
    value {
      s: "sequential/lstm_1/PartitionedCall/while"
    }
  }
  attr {
    key: "is_constant"
    value {
      b: false
    }
  }
  attr {
    key: "parallel_iterations"
    value {
      i: 32
    }
  }
}
node {
  name: "unused_control_flow_input_1"
  op: "Placeholder"
  attr {
    key: "dtype"
    value {
      type: DT_FLOAT
    }
  }
  attr {
    key: "shape"
    value {
      shape {
        unknown_rank: true
      }
    }
  }
}
node {
  name: "Func/sequential/lstm_1/PartitionedCall/while/body/_12/output/_106"
  op: "Identity"
  input: "Func/sequential/lstm_1/PartitionedCall/while/body/_12/input/_95"
  attr {
    key: "T"
    value {
      type: DT_FLOAT
    }
  }
}
node {
  name: "sequential/lstm_1/PartitionedCall/while/next_iteration/_70"
  op: "NextIteration"
  input: "Func/sequential/lstm_1/PartitionedCall/while/body/_12/output/_106"
  input: "^Func/sequential/lstm_1/PartitionedCall/while/body/_12/output_control_node/_107"
  attr {
    key: "T"
    value {
      type: DT_FLOAT
    }
  }
}
node {
  name: "sequential/lstm_1/PartitionedCall/while/merge/_34"
  op: "Merge"
  input: "sequential/lstm_1/PartitionedCall/while/enter/_23"
  input: "sequential/lstm_1/PartitionedCall/while/next_iteration/_70"
  attr {
    key: "N"
    value {
      i: 2
    }
  }
  attr {
    key: "T"
    value {
      type: DT_FLOAT
    }
  }
}
node {
  name: "unused_control_flow_input_2"
  op: "Placeholder"
  attr {
    key: "dtype"
    value {
      type: DT_BOOL
    }
  }
  attr {
    key: "shape"
    value {
      shape {
      }
    }
  }
}
node {
  name: "sequential/lstm_1/PartitionedCall/while/Func/sequential/lstm_1/PartitionedCall/input/_5_switch/_46"
  op: "Switch"
  input: "sequential/lstm_1/PartitionedCall/while/merge/_34"
  input: "sequential/lstm_1/PartitionedCall/while/LoopCond/_35"
  attr {
    key: "T"
    value {
      type: DT_FLOAT
    }
  }
}
node {
  name: "Func/sequential/lstm_1/PartitionedCall/while/body/_12/input/_95"
  op: "Identity"
  input: "sequential/lstm_1/PartitionedCall/while/Func/sequential/lstm_1/PartitionedCall/input/_5_switch/_46:1"
  input: "^Func/sequential/lstm_1/PartitionedCall/while/body/_12/input_control_node/_84"
  attr {
    key: "T"
    value {
      type: DT_FLOAT
    }
  }
}
node {
  name: "Func/sequential/lstm_1/PartitionedCall/input/_0"
  op: "Identity"
  input: "x"
  attr {
    key: "T"
    value {
      type: DT_FLOAT
    }
  }
}
node {
  name: "sequential/lstm_1/PartitionedCall/transpose/perm"
  op: "Const"
  attr {
    key: "dtype"
    value {
      type: DT_INT32
    }
  }
  attr {
    key: "value"
    value {
      tensor {
        dtype: DT_INT32
        tensor_shape {
          dim {
            size: 3
          }
        }
        tensor_content: "\001\000\000\000\000\000\000\000\002\000\000\000"
      }
    }
  }
}
node {
  name: "sequential/lstm_1/PartitionedCall/transpose"
  op: "Transpose"
  input: "Func/sequential/lstm_1/PartitionedCall/input/_0"
  input: "sequential/lstm_1/PartitionedCall/transpose/perm"
  attr {
    key: "T"
    value {
      type: DT_FLOAT
    }
  }
  attr {
    key: "Tperm"
    value {
      type: DT_INT32
    }
  }
}
node {
  name: "sequential/lstm_1/PartitionedCall/Shape"
  op: "Shape"
  input: "sequential/lstm_1/PartitionedCall/transpose"
  attr {
    key: "T"
    value {
      type: DT_FLOAT
    }
  }
  attr {
    key: "out_type"
    value {
      type: DT_INT32
    }
  }
}
node {
  name: "sequential/lstm_1/PartitionedCall/strided_slice/stack"
  op: "Const"
  attr {
    key: "dtype"
    value {
      type: DT_INT32
    }
  }
  attr {
    key: "value"
    value {
      tensor {
        dtype: DT_INT32
        tensor_shape {
          dim {
            size: 1
          }
        }
        int_val: 0
      }
    }
  }
}
node {
  name: "sequential/lstm_1/PartitionedCall/strided_slice/stack_1"
  op: "Const"
  attr {
    key: "dtype"
    value {
      type: DT_INT32
    }
  }
  attr {
    key: "value"
    value {
      tensor {
        dtype: DT_INT32
        tensor_shape {
          dim {
            size: 1
          }
        }
        int_val: 1
      }
    }
  }
}
node {
  name: "sequential/lstm_1/PartitionedCall/strided_slice/stack_2"
  op: "Const"
  attr {
    key: "dtype"
    value {
      type: DT_INT32
    }
  }
  attr {
    key: "value"
    value {
      tensor {
        dtype: DT_INT32
        tensor_shape {
          dim {
            size: 1
          }
        }
        int_val: 1
      }
    }
  }
}
node {
  name: "sequential/lstm_1/PartitionedCall/strided_slice"
  op: "StridedSlice"
  input: "sequential/lstm_1/PartitionedCall/Shape"
  input: "sequential/lstm_1/PartitionedCall/strided_slice/stack"
  input: "sequential/lstm_1/PartitionedCall/strided_slice/stack_1"
  input: "sequential/lstm_1/PartitionedCall/strided_slice/stack_2"
  attr {
    key: "Index"
    value {
      type: DT_INT32
    }
  }
  attr {
    key: "T"
    value {
      type: DT_INT32
    }
  }
  attr {
    key: "begin_mask"
    value {
      i: 0
    }
  }
  attr {
    key: "ellipsis_mask"
    value {
      i: 0
    }
  }
  attr {
    key: "end_mask"
    value {
      i: 0
    }
  }
  attr {
    key: "new_axis_mask"
    value {
      i: 0
    }
  }
  attr {
    key: "shrink_axis_mask"
    value {
      i: 1
    }
  }
}
node {
  name: "sequential/lstm_1/PartitionedCall/while/enter/_19"
  op: "Enter"
  input: "sequential/lstm_1/PartitionedCall/strided_slice"
  attr {
    key: "T"
    value {
      type: DT_INT32
    }
  }
  attr {
    key: "frame_name"
    value {
      s: "sequential/lstm_1/PartitionedCall/while"
    }
  }
  attr {
    key: "is_constant"
    value {
      b: false
    }
  }
  attr {
    key: "parallel_iterations"
    value {
      i: 32
    }
  }
}
node {
  name: "unused_control_flow_input_3"
  op: "Placeholder"
  attr {
    key: "dtype"
    value {
      type: DT_INT32
    }
  }
  attr {
    key: "shape"
    value {
      shape {
        unknown_rank: true
      }
    }
  }
}
node {
  name: "unused_control_flow_input_4"
  op: "Placeholder"
  attr {
    key: "dtype"
    value {
      type: DT_BOOL
    }
  }
  attr {
    key: "shape"
    value {
      shape {
      }
    }
  }
}
node {
  name: "sequential/lstm_1/PartitionedCall/while/sequential/lstm_1/PartitionedCall/strided_slice_switch/_42"
  op: "Switch"
  input: "sequential/lstm_1/PartitionedCall/while/merge/_30"
  input: "sequential/lstm_1/PartitionedCall/while/LoopCond/_35"
  attr {
    key: "T"
    value {
      type: DT_INT32
    }
  }
}
node {
  name: "Func/sequential/lstm_1/PartitionedCall/while/body/_12/input/_91"
  op: "Identity"
  input: "sequential/lstm_1/PartitionedCall/while/sequential/lstm_1/PartitionedCall/strided_slice_switch/_42:1"
  input: "^Func/sequential/lstm_1/PartitionedCall/while/body/_12/input_control_node/_84"
  attr {
    key: "T"
    value {
      type: DT_INT32
    }
  }
}
node {
  name: "Func/sequential/lstm_1/PartitionedCall/while/body/_12/output/_102"
  op: "Identity"
  input: "Func/sequential/lstm_1/PartitionedCall/while/body/_12/input/_91"
  attr {
    key: "T"
    value {
      type: DT_INT32
    }
  }
}
node {
  name: "sequential/lstm_1/PartitionedCall/while/next_iteration/_66"
  op: "NextIteration"
  input: "Func/sequential/lstm_1/PartitionedCall/while/body/_12/output/_102"
  input: "^Func/sequential/lstm_1/PartitionedCall/while/body/_12/output_control_node/_107"
  attr {
    key: "T"
    value {
      type: DT_INT32
    }
  }
}
node {
  name: "sequential/lstm_1/PartitionedCall/while/merge/_30"
  op: "Merge"
  input: "sequential/lstm_1/PartitionedCall/while/enter/_19"
  input: "sequential/lstm_1/PartitionedCall/while/next_iteration/_66"
  attr {
    key: "N"
    value {
      i: 2
    }
  }
  attr {
    key: "T"
    value {
      type: DT_INT32
    }
  }
}
node {
  name: "sequential/lstm_1/PartitionedCall/time"
  op: "Const"
  attr {
    key: "dtype"
    value {
      type: DT_INT32
    }
  }
  attr {
    key: "value"
    value {
      tensor {
        dtype: DT_INT32
        tensor_shape {
        }
        int_val: 0
      }
    }
  }
}
node {
  name: "sequential/lstm_1/PartitionedCall/while/enter/_15"
  op: "Enter"
  input: "sequential/lstm_1/PartitionedCall/time"
  attr {
    key: "T"
    value {
      type: DT_INT32
    }
  }
  attr {
    key: "frame_name"
    value {
      s: "sequential/lstm_1/PartitionedCall/while"
    }
  }
  attr {
    key: "is_constant"
    value {
      b: false
    }
  }
  attr {
    key: "parallel_iterations"
    value {
      i: 32
    }
  }
}
node {
  name: "unused_control_flow_input_5"
  op: "Placeholder"
  attr {
    key: "dtype"
    value {
      type: DT_INT32
    }
  }
  attr {
    key: "shape"
    value {
      shape {
        unknown_rank: true
      }
    }
  }
}
node {
  name: "unused_control_flow_input_6"
  op: "Placeholder"
  attr {
    key: "dtype"
    value {
      type: DT_BOOL
    }
  }
  attr {
    key: "shape"
    value {
      shape {
      }
    }
  }
}
node {
  name: "sequential/lstm_1/PartitionedCall/while/sequential/lstm_1/PartitionedCall/time_switch/_38"
  op: "Switch"
  input: "sequential/lstm_1/PartitionedCall/while/merge/_26"
  input: "sequential/lstm_1/PartitionedCall/while/LoopCond/_35"
  attr {
    key: "T"
    value {
      type: DT_INT32
    }
  }
}
node {
  name: "Func/sequential/lstm_1/PartitionedCall/while/body/_12/input/_87"
  op: "Identity"
  input: "sequential/lstm_1/PartitionedCall/while/sequential/lstm_1/PartitionedCall/time_switch/_38:1"
  input: "^Func/sequential/lstm_1/PartitionedCall/while/body/_12/input_control_node/_84"
  attr {
    key: "T"
    value {
      type: DT_INT32
    }
  }
}
node {
  name: "sequential/lstm_1/PartitionedCall/while/body/_12/while/add_2/y"
  op: "Const"
  input: "^Func/sequential/lstm_1/PartitionedCall/while/body/_12/input_control_node/_84"
  attr {
    key: "dtype"
    value {
      type: DT_INT32
    }
  }
  attr {
    key: "value"
    value {
      tensor {
        dtype: DT_INT32
        tensor_shape {
        }
        int_val: 1
      }
    }
  }
}
node {
  name: "sequential/lstm_1/PartitionedCall/while/body/_12/while/add_2"
  op: "AddV2"
  input: "Func/sequential/lstm_1/PartitionedCall/while/body/_12/input/_87"
  input: "sequential/lstm_1/PartitionedCall/while/body/_12/while/add_2/y"
  attr {
    key: "T"
    value {
      type: DT_INT32
    }
  }
}
node {
  name: "sequential/lstm_1/PartitionedCall/while/body/_12/while/Identity_2"
  op: "Identity"
  input: "sequential/lstm_1/PartitionedCall/while/body/_12/while/add_2"
  attr {
    key: "T"
    value {
      type: DT_INT32
    }
  }
}
node {
  name: "Func/sequential/lstm_1/PartitionedCall/while/body/_12/output/_98"
  op: "Identity"
  input: "sequential/lstm_1/PartitionedCall/while/body/_12/while/Identity_2"
  attr {
    key: "T"
    value {
      type: DT_INT32
    }
  }
}
node {
  name: "sequential/lstm_1/PartitionedCall/while/next_iteration/_62"
  op: "NextIteration"
  input: "Func/sequential/lstm_1/PartitionedCall/while/body/_12/output/_98"
  input: "^Func/sequential/lstm_1/PartitionedCall/while/body/_12/output_control_node/_107"
  attr {
    key: "T"
    value {
      type: DT_INT32
    }
  }
}
node {
  name: "sequential/lstm_1/PartitionedCall/while/merge/_26"
  op: "Merge"
  input: "sequential/lstm_1/PartitionedCall/while/enter/_15"
  input: "sequential/lstm_1/PartitionedCall/while/next_iteration/_62"
  attr {
    key: "N"
    value {
      i: 2
    }
  }
  attr {
    key: "T"
    value {
      type: DT_INT32
    }
  }
}
node {
  name: "unused_control_flow_input_7"
  op: "Placeholder"
  attr {
    key: "dtype"
    value {
      type: DT_FLOAT
    }
  }
  attr {
    key: "shape"
    value {
      shape {
        dim {
          size: 32
        }
        dim {
          size: 128
        }
      }
    }
  }
}
node {
  name: "sequential/lstm_1/Identity_1"
  op: "Identity"
  input: "sequential/lstm_1/Read_1/ReadVariableOp"
  attr {
    key: "T"
    value {
      type: DT_FLOAT
    }
  }
}
node {
  name: "Func/sequential/lstm_1/PartitionedCall/input/_4"
  op: "Identity"
  input: "sequential/lstm_1/Identity_1"
  attr {
    key: "T"
    value {
      type: DT_FLOAT
    }
  }
}
node {
  name: "sequential/lstm_1/PartitionedCall/while/enter/_22"
  op: "Enter"
  input: "Func/sequential/lstm_1/PartitionedCall/input/_4"
  attr {
    key: "T"
    value {
      type: DT_FLOAT
    }
  }
  attr {
    key: "frame_name"
    value {
      s: "sequential/lstm_1/PartitionedCall/while"
    }
  }
  attr {
    key: "is_constant"
    value {
      b: false
    }
  }
  attr {
    key: "parallel_iterations"
    value {
      i: 32
    }
  }
}
node {
  name: "unused_control_flow_input_8"
  op: "Placeholder"
  attr {
    key: "dtype"
    value {
      type: DT_FLOAT
    }
  }
  attr {
    key: "shape"
    value {
      shape {
        unknown_rank: true
      }
    }
  }
}
node {
  name: "Func/sequential/lstm_1/PartitionedCall/while/body/_12/output/_105"
  op: "Identity"
  input: "Func/sequential/lstm_1/PartitionedCall/while/body/_12/input/_94"
  attr {
    key: "T"
    value {
      type: DT_FLOAT
    }
  }
}
node {
  name: "sequential/lstm_1/PartitionedCall/while/next_iteration/_69"
  op: "NextIteration"
  input: "Func/sequential/lstm_1/PartitionedCall/while/body/_12/output/_105"
  input: "^Func/sequential/lstm_1/PartitionedCall/while/body/_12/output_control_node/_107"
  attr {
    key: "T"
    value {
      type: DT_FLOAT
    }
  }
}
node {
  name: "sequential/lstm_1/PartitionedCall/while/merge/_33"
  op: "Merge"
  input: "sequential/lstm_1/PartitionedCall/while/enter/_22"
  input: "sequential/lstm_1/PartitionedCall/while/next_iteration/_69"
  attr {
    key: "N"
    value {
      i: 2
    }
  }
  attr {
    key: "T"
    value {
      type: DT_FLOAT
    }
  }
}
node {
  name: "unused_control_flow_input_9"
  op: "Placeholder"
  attr {
    key: "dtype"
    value {
      type: DT_BOOL
    }
  }
  attr {
    key: "shape"
    value {
      shape {
      }
    }
  }
}
node {
  name: "sequential/lstm_1/PartitionedCall/while/Func/sequential/lstm_1/PartitionedCall/input/_4_switch/_45"
  op: "Switch"
  input: "sequential/lstm_1/PartitionedCall/while/merge/_33"
  input: "sequential/lstm_1/PartitionedCall/while/LoopCond/_35"
  attr {
    key: "T"
    value {
      type: DT_FLOAT
    }
  }
}
node {
  name: "Func/sequential/lstm_1/PartitionedCall/while/body/_12/input/_94"
  op: "Identity"
  input: "sequential/lstm_1/PartitionedCall/while/Func/sequential/lstm_1/PartitionedCall/input/_4_switch/_45:1"
  input: "^Func/sequential/lstm_1/PartitionedCall/while/body/_12/input_control_node/_84"
  attr {
    key: "T"
    value {
      type: DT_FLOAT
    }
  }
}
node {
  name: "unused_control_flow_input_10"
  op: "Placeholder"
  attr {
    key: "dtype"
    value {
      type: DT_FLOAT
    }
  }
  attr {
    key: "shape"
    value {
      shape {
        dim {
          size: 9
        }
        dim {
          size: 128
        }
      }
    }
  }
}
node {
  name: "sequential/lstm_1/Identity"
  op: "Identity"
  input: "sequential/lstm_1/Read/ReadVariableOp"
  attr {
    key: "T"
    value {
      type: DT_FLOAT
    }
  }
}
node {
  name: "Func/sequential/lstm_1/PartitionedCall/input/_3"
  op: "Identity"
  input: "sequential/lstm_1/Identity"
  attr {
    key: "T"
    value {
      type: DT_FLOAT
    }
  }
}
node {
  name: "sequential/lstm_1/PartitionedCall/while/enter/_21"
  op: "Enter"
  input: "Func/sequential/lstm_1/PartitionedCall/input/_3"
  attr {
    key: "T"
    value {
      type: DT_FLOAT
    }
  }
  attr {
    key: "frame_name"
    value {
      s: "sequential/lstm_1/PartitionedCall/while"
    }
  }
  attr {
    key: "is_constant"
    value {
      b: false
    }
  }
  attr {
    key: "parallel_iterations"
    value {
      i: 32
    }
  }
}
node {
  name: "unused_control_flow_input_11"
  op: "Placeholder"
  attr {
    key: "dtype"
    value {
      type: DT_FLOAT
    }
  }
  attr {
    key: "shape"
    value {
      shape {
        unknown_rank: true
      }
    }
  }
}
node {
  name: "Func/sequential/lstm_1/PartitionedCall/while/body/_12/output/_104"
  op: "Identity"
  input: "Func/sequential/lstm_1/PartitionedCall/while/body/_12/input/_93"
  attr {
    key: "T"
    value {
      type: DT_FLOAT
    }
  }
}
node {
  name: "sequential/lstm_1/PartitionedCall/while/next_iteration/_68"
  op: "NextIteration"
  input: "Func/sequential/lstm_1/PartitionedCall/while/body/_12/output/_104"
  input: "^Func/sequential/lstm_1/PartitionedCall/while/body/_12/output_control_node/_107"
  attr {
    key: "T"
    value {
      type: DT_FLOAT
    }
  }
}
node {
  name: "sequential/lstm_1/PartitionedCall/while/merge/_32"
  op: "Merge"
  input: "sequential/lstm_1/PartitionedCall/while/enter/_21"
  input: "sequential/lstm_1/PartitionedCall/while/next_iteration/_68"
  attr {
    key: "N"
    value {
      i: 2
    }
  }
  attr {
    key: "T"
    value {
      type: DT_FLOAT
    }
  }
}
node {
  name: "unused_control_flow_input_12"
  op: "Placeholder"
  attr {
    key: "dtype"
    value {
      type: DT_BOOL
    }
  }
  attr {
    key: "shape"
    value {
      shape {
      }
    }
  }
}
node {
  name: "sequential/lstm_1/PartitionedCall/while/Func/sequential/lstm_1/PartitionedCall/input/_3_switch/_44"
  op: "Switch"
  input: "sequential/lstm_1/PartitionedCall/while/merge/_32"
  input: "sequential/lstm_1/PartitionedCall/while/LoopCond/_35"
  attr {
    key: "T"
    value {
      type: DT_FLOAT
    }
  }
}
node {
  name: "Func/sequential/lstm_1/PartitionedCall/while/body/_12/input/_93"
  op: "Identity"
  input: "sequential/lstm_1/PartitionedCall/while/Func/sequential/lstm_1/PartitionedCall/input/_3_switch/_44:1"
  input: "^Func/sequential/lstm_1/PartitionedCall/while/body/_12/input_control_node/_84"
  attr {
    key: "T"
    value {
      type: DT_FLOAT
    }
  }
}
node {
  name: "sequential/lstm_1/PartitionedCall/TensorArrayUnstack/TensorListFromTensor/element_shape"
  op: "Const"
  attr {
    key: "dtype"
    value {
      type: DT_INT32
    }
  }
  attr {
    key: "value"
    value {
      tensor {
        dtype: DT_INT32
        tensor_shape {
          dim {
            size: 2
          }
        }
        tensor_content: "\377\377\377\377\t\000\000\000"
      }
    }
  }
}
node {
  name: "sequential/lstm_1/PartitionedCall/TensorArrayUnstack/TensorListFromTensor"
  op: "TensorListFromTensor"
  input: "sequential/lstm_1/PartitionedCall/transpose"
  input: "sequential/lstm_1/PartitionedCall/TensorArrayUnstack/TensorListFromTensor/element_shape"
  attr {
    key: "element_dtype"
    value {
      type: DT_FLOAT
    }
  }
  attr {
    key: "shape_type"
    value {
      type: DT_INT32
    }
  }
}
node {
  name: "sequential/lstm_1/PartitionedCall/while/enter/_20"
  op: "Enter"
  input: "sequential/lstm_1/PartitionedCall/TensorArrayUnstack/TensorListFromTensor"
  attr {
    key: "T"
    value {
      type: DT_VARIANT
    }
  }
  attr {
    key: "frame_name"
    value {
      s: "sequential/lstm_1/PartitionedCall/while"
    }
  }
  attr {
    key: "is_constant"
    value {
      b: false
    }
  }
  attr {
    key: "parallel_iterations"
    value {
      i: 32
    }
  }
}
node {
  name: "unused_control_flow_input_13"
  op: "Placeholder"
  attr {
    key: "dtype"
    value {
      type: DT_VARIANT
    }
  }
  attr {
    key: "shape"
    value {
      shape {
        unknown_rank: true
      }
    }
  }
}
node {
  name: "Func/sequential/lstm_1/PartitionedCall/while/body/_12/output/_103"
  op: "Identity"
  input: "Func/sequential/lstm_1/PartitionedCall/while/body/_12/input/_92"
  attr {
    key: "T"
    value {
      type: DT_VARIANT
    }
  }
}
node {
  name: "sequential/lstm_1/PartitionedCall/while/next_iteration/_67"
  op: "NextIteration"
  input: "Func/sequential/lstm_1/PartitionedCall/while/body/_12/output/_103"
  input: "^Func/sequential/lstm_1/PartitionedCall/while/body/_12/output_control_node/_107"
  attr {
    key: "T"
    value {
      type: DT_VARIANT
    }
  }
}
node {
  name: "sequential/lstm_1/PartitionedCall/while/merge/_31"
  op: "Merge"
  input: "sequential/lstm_1/PartitionedCall/while/enter/_20"
  input: "sequential/lstm_1/PartitionedCall/while/next_iteration/_67"
  attr {
    key: "N"
    value {
      i: 2
    }
  }
  attr {
    key: "T"
    value {
      type: DT_VARIANT
    }
  }
}
node {
  name: "unused_control_flow_input_14"
  op: "Placeholder"
  attr {
    key: "dtype"
    value {
      type: DT_BOOL
    }
  }
  attr {
    key: "shape"
    value {
      shape {
      }
    }
  }
}
node {
  name: "sequential/lstm_1/PartitionedCall/while/sequential/lstm_1/PartitionedCall/TensorArrayUnstack/TensorListFromTensor_switch/_43"
  op: "Switch"
  input: "sequential/lstm_1/PartitionedCall/while/merge/_31"
  input: "sequential/lstm_1/PartitionedCall/while/LoopCond/_35"
  attr {
    key: "T"
    value {
      type: DT_VARIANT
    }
  }
}
node {
  name: "Func/sequential/lstm_1/PartitionedCall/while/body/_12/input/_92"
  op: "Identity"
  input: "sequential/lstm_1/PartitionedCall/while/sequential/lstm_1/PartitionedCall/TensorArrayUnstack/TensorListFromTensor_switch/_43:1"
  input: "^Func/sequential/lstm_1/PartitionedCall/while/body/_12/input_control_node/_84"
  attr {
    key: "T"
    value {
      type: DT_VARIANT
    }
  }
}
node {
  name: "sequential/lstm_1/PartitionedCall/while/loop_counter"
  op: "Const"
  attr {
    key: "dtype"
    value {
      type: DT_INT32
    }
  }
  attr {
    key: "value"
    value {
      tensor {
        dtype: DT_INT32
        tensor_shape {
        }
        int_val: 0
      }
    }
  }
}
node {
  name: "sequential/lstm_1/PartitionedCall/while/enter/_13"
  op: "Enter"
  input: "sequential/lstm_1/PartitionedCall/while/loop_counter"
  attr {
    key: "T"
    value {
      type: DT_INT32
    }
  }
  attr {
    key: "frame_name"
    value {
      s: "sequential/lstm_1/PartitionedCall/while"
    }
  }
  attr {
    key: "is_constant"
    value {
      b: false
    }
  }
  attr {
    key: "parallel_iterations"
    value {
      i: 32
    }
  }
}
node {
  name: "unused_control_flow_input_15"
  op: "Placeholder"
  attr {
    key: "dtype"
    value {
      type: DT_INT32
    }
  }
  attr {
    key: "shape"
    value {
      shape {
        unknown_rank: true
      }
    }
  }
}
node {
  name: "Func/sequential/lstm_1/PartitionedCall/while/body/_12/input/_85"
  op: "Identity"
  input: "sequential/lstm_1/PartitionedCall/while/sequential/lstm_1/PartitionedCall/while/loop_counter_switch/_36:1"
  input: "^Func/sequential/lstm_1/PartitionedCall/while/body/_12/input_control_node/_84"
  attr {
    key: "T"
    value {
      type: DT_INT32
    }
  }
}
node {
  name: "sequential/lstm_1/PartitionedCall/while/body/_12/while/add_3/y"
  op: "Const"
  input: "^Func/sequential/lstm_1/PartitionedCall/while/body/_12/input_control_node/_84"
  attr {
    key: "dtype"
    value {
      type: DT_INT32
    }
  }
  attr {
    key: "value"
    value {
      tensor {
        dtype: DT_INT32
        tensor_shape {
        }
        int_val: 1
      }
    }
  }
}
node {
  name: "sequential/lstm_1/PartitionedCall/while/body/_12/while/add_3"
  op: "AddV2"
  input: "Func/sequential/lstm_1/PartitionedCall/while/body/_12/input/_85"
  input: "sequential/lstm_1/PartitionedCall/while/body/_12/while/add_3/y"
  attr {
    key: "T"
    value {
      type: DT_INT32
    }
  }
}
node {
  name: "sequential/lstm_1/PartitionedCall/while/body/_12/while/Identity"
  op: "Identity"
  input: "sequential/lstm_1/PartitionedCall/while/body/_12/while/add_3"
  attr {
    key: "T"
    value {
      type: DT_INT32
    }
  }
}
node {
  name: "Func/sequential/lstm_1/PartitionedCall/while/body/_12/output/_96"
  op: "Identity"
  input: "sequential/lstm_1/PartitionedCall/while/body/_12/while/Identity"
  attr {
    key: "T"
    value {
      type: DT_INT32
    }
  }
}
node {
  name: "sequential/lstm_1/PartitionedCall/while/next_iteration/_60"
  op: "NextIteration"
  input: "Func/sequential/lstm_1/PartitionedCall/while/body/_12/output/_96"
  input: "^Func/sequential/lstm_1/PartitionedCall/while/body/_12/output_control_node/_107"
  attr {
    key: "T"
    value {
      type: DT_INT32
    }
  }
}
node {
  name: "sequential/lstm_1/PartitionedCall/while/merge/_24"
  op: "Merge"
  input: "sequential/lstm_1/PartitionedCall/while/enter/_13"
  input: "sequential/lstm_1/PartitionedCall/while/next_iteration/_60"
  attr {
    key: "N"
    value {
      i: 2
    }
  }
  attr {
    key: "T"
    value {
      type: DT_INT32
    }
  }
}
node {
  name: "unused_control_flow_input_16"
  op: "Placeholder"
  attr {
    key: "dtype"
    value {
      type: DT_BOOL
    }
  }
  attr {
    key: "shape"
    value {
      shape {
      }
    }
  }
}
node {
  name: "sequential/lstm_1/PartitionedCall/while/sequential/lstm_1/PartitionedCall/while/loop_counter_switch/_36"
  op: "Switch"
  input: "sequential/lstm_1/PartitionedCall/while/merge/_24"
  input: "sequential/lstm_1/PartitionedCall/while/LoopCond/_35"
  attr {
    key: "T"
    value {
      type: DT_INT32
    }
  }
}
node {
  name: "sequential/lstm_1/PartitionedCall/while/loop_body_control/_47"
  op: "Identity"
  input: "sequential/lstm_1/PartitionedCall/while/sequential/lstm_1/PartitionedCall/while/loop_counter_switch/_36:1"
  attr {
    key: "T"
    value {
      type: DT_INT32
    }
  }
}
node {
  name: "Func/sequential/lstm_1/PartitionedCall/while/body/_12/input_control_node/_84"
  op: "NoOp"
  input: "^sequential/lstm_1/PartitionedCall/while/loop_body_control/_47"
}
node {
  name: "sequential/lstm_1/Read_1/ReadVariableOp/resource"
  op: "Const"
  attr {
    key: "dtype"
    value {
      type: DT_FLOAT
    }
  }
  attr {
    key: "value"
    value {
      tensor {
        dtype: DT_FLOAT
        tensor_shape {
          dim {
            size: 32
          }
          dim {
            size: 128
          }
        }
        tensor_content: "\240J\022=Y\331m\275\317f-=\251\204\027\275\202\260\337<- \204;\314\201$\276\265\340\r<VI\357<\200\007\206>\370S\004\275\360\200\024:j\020\370\274\n\260\353:\340\317h=\206\330\263\275\205\276^=\254`\n>fU[=s\024/=1\\\010<<\357o=h\241\367\275\022\240\035\276\rZ\256\274:\331\233=q\313\024\275?\335\206\275\347+\003>\223\014\351\274\337:B\275\220m\206\274\221\227V:\331\350\024\275\355\3471=\2602N<\364`\227\275\013 \200\274;Tn=\277i\301\274Cz\274\274\237\010\211\274\203\t\347\274\220]d\275\243\2174<\332\252\334=\004\224\306=7^6\275G\336\256\275\306\325\370\274\253\373\376<5U\343=\256\276y=\372l6>d\330\001\276\253\217\226\275\215\321w\275\210l\257\275\033|O=[\241\\\275\232\270\034<\237QI<%\307\235=q^\034>F\362f\275U\222\220>*\004t=\202P1\275G\220\227=\302\t\317<?=\203\274\033\231\352\275\220RR>\256\217j=\330\036\002\275\0100\251\274\330>\007\276\254xH\275\335\225\302\274>\334\001>\226,\034\275\346\376\374\274\345&u=\331\301\251=\333k\211\275\206\270\013\275\222\334\272\275\212\333E<\245\276=\276\273r\035>}\301\231\275\352\017\245<\266,\207=\024\353s\276\232D\321\275\233T\260\275\001\275E\275\2674\375\275i5y\275w\354\310\2758\000\022\276$\037\212=\227\364\345<\216\203\362\275\361(\322\274\205*O\276\024R0\276o\035\313=\017\356\\\275\251j\177=\265\332\267<\220Z\236\275\312\2145\276\303`\006>\265\"\366<+[\035\275\354\334\n>\241\262\337;\002e\274<\223/\372\274\313\261m=\256\226\373=\212\327\371<\353B\205\275:\265D\2757iT\275\377\233O>=7\264=\251\211*>\205v!\276\242\240[\276\354\277\215\275~\273\326\275\347\003\203<\273-\223\275a\271@>i\216d\275\331,\003>\314\344\260=\'\031\022\276\025\332\254<%|\226\275\014\017\030>\253\226\005=\241\003<\274\225\332\274=\221\345\333<?A#\275K\025F\275\234\262\002\276\354]\322\275\303\307\372=\022Rc<L\n\213\274\275\356\236\275\350\212\300=\355\212`\276\210\2658>cCn=\201\2145\275B\024y=G\033L=Z\270\210=\220\213\317\273}#\220=\216\333c=\303]\310<\025[\235\274v\231\322=uW\311\275\312\370\255=%\377X;N\022B\275\023\010\003\276\371z\030>\350\273\222=\342\317\227=a\242\275\275\305E\333\275\020\316\245\275\031cJ>\340\t\343\273=`\320\275J\277\267\2756\254\233\275\357\252%\276\363\360O<\250:w>\217q\'=;o\262==\\K\273uI\254=\001\0357\275\246s%=\275\3640\275[[,<]i\013\275\030E\334<\200w\361\2751r\336=\261\2208\276\322\255?=(m\371\275\311\366\314=\020Z\255\275\007\251\335<Z\3500\276\361\007I<l\246\257<\312\207\220\275\305& \2749%\001\276\2315g\275\007\344\366\275k\023\031\274.\371\207=q\310\031>W8\022\275\032n\303\275\034\2615\276]\300\356=iA\315=4\307\260\275i\265T\274r\223\263\275\357;\213\275J,\374<$/\315=Hrm\275\'\370d=\3461\333\274ig\'\275vRZ<\266+0\275\361\200\017>\326i\203\274@=\257=\374\314\356=\262b >Sv\371;V\314\266\274\221S\311\275\344$p\273\374\352g<d*\206=\310,P\274\270#\222=0jc>`\006\021<\342\307\301\275\246\201R\274b\232\321\273\301\007\023<\343\227R<q.I;\245\232;\275\341\267{=\000\225\034>{\351D=\360\253\031=:\311\305=\210Y\022=0$\267=\\|[\273Z\357:\276\211\324\300=\356\315\016=\rfj<\245C\213>\303NR=x7m>\252ZI>\346\254v={-\013\27621\344=v\327M;\007I@\275\"\337Q\275P\230\033\275`\324\275\274WT%:\204\263 \275\216\'\256\275\032y\350\275\233i\252\273;H\032>#\033n=A\302\220\276Nt6=\013\315)\276\341c\317=\212\357\231\275*\017\317<\364\251\315\275\346\026\230=\300^?\275V\360|=@\305k\274\211\247\322\275v?\217\275\234\215c=\010\343 \275**^>\262\000Z=\324X\016>\341\277i\274RR\002<s3\317<%\362\006\276\274\002\010=\014\347v=\210\264\234;\340\217\033\276y\013\324\275\220\257S=3s$\275\215o\354\273\031A?=\234\021\247=\236\277\363\275\264~\016<\312\363\374<\265|r\276\352\210O>\204\213\331=)\304h<k\327K=C}$>\304\236\221\275\363J\006\272)\323\314\275M~n\275\031\023\365\274\277\037\271\275Q1\314\274=\326\225=\023\003f\276\016]\260\275G\2332\275K\026\025\276\337\265\035\275\034f\307\275\245\t\277<Pk1=\253|\330\275\276^\005\276\213\304R\274\274\261\327\275\234z\234<\330\027\325=\335\303\255=\233s\202=6v6>%\266\203\275\217]o\274\244\200n=3\335\272=\325\0233\275J\325\361\274\251\222\351\275W\274\336\275\362\027\221=q\215\344=VNq=E\235^=\"a\010\276\206\273\314=55\017\275\336\236H\275!\354\272\275_\214<=Re\020\276\314\263l\276\267\215\324\274\204\211\261\274+\365\n\275\272]>\273\367\027\370;\377\004\005=\305/\207\274^\322T=\010\201D=n$\334=~\246\240\275\271\234c=\037#7>9{\226=\205Y\226\275\222\204\371\275eZ[=\377Z\302=\304\265\320\275xl\203<\007\330\010\276\270\216\211\275\361\262;\275M\251\264\274\244]\017\276O\342\010\275\372\272p\274\336\361N>\243\025\311\275\314#o\275\004B_=bq\001>\377\025\301\275\347V\021=n\0061<\027<->{w\014=\362\265 \275\005\035\234\275\333\372\270=\376\355\023>j\336\">\2024\004\276\224\217\241;\371\352\231\275\r`\006\276\254\324\316=1`\334<?\261+:\213\024\001\276\352\216;\276\276\"[\276K\250\314=O_f\275\034- \276O\231K\276j\035\n\276\214\026g;E\255\032=\204E\261<M\362\375\275m\226|=\343\255\001\276\202G\275=\260\024\244=B\031~<\346\004\216\275\345\337\t\276:h\212\275\273[\310\275\201_\317=\213A\263\274\276a\311=j\351\302=\210\0200\276\351\363\335\275\\H\t;\251\312C=\266S\007\273\200g\n\276&xi\275BQ\n\274\352\035\003>Qj\317\2739\005z=\352L\371<}\242\004\273\303\344:=\265\247a\275\005\353\310=\204s\206\275E\257\213>.\237\225\275\267\323;=\212\224\002=XC\302;N\020Y\275\230\256\t\276\010\033X=\222<\363<\202}\310=\021\001Y\275<e\302=^\207\315\275h\236N>\352\331\243=\321\211\225<\023\033 >y^!\275>\240H=F\275\317<K@K=\223\0147>\242\254\365\275\005m\376=\365\216\356<M\227\235\275\334=\035\274\365O\013\275G\261X\274\360\207!\276\253\035$\276$\341\272\274\315\234\000=\251\314Q\276;<\275\2740e\374\275X\006\370<g\374\371\275BbF\273\245\'\033\275\3771\352=\264qs<b\203\251=\253Zz\275\2043\330\275\305\217%>\001\324\222=\350\353\365\272\002\330\347=\177d\277=\244\313\223;\253\230\352==9\212=R\230\"\271NrO\275\345\0140=\213\322\177\276\265\316\000>\305\016\256\274\313\333&<\004h\274\275\351\360O\275U\325!\276w%A\276+\343\325=I\267\372\275\037\325\274=\277H\222\275\317\314\345\274\331W\224\275\335]\005\276g\255\215=o\327\217\275\220\033B=\206\350\350=\303\215\267\275\016\247u\276\266z\217=\t\024:>j\265\224=\234WS>A\312\222\274\022\363\267=\324\242\354\274\323-\215=\216\314\207\275/\243\314=\203\272\270=!]\247=`mQ\273#\315\254\275\005\017==\314\340\361=\003QU\275\207:\230=\257\202\377;\'\323=\274\275\265\257\274O\245\312=Z\214\240\275\003U\360=N\\\257=${\362\275@\341,>y\367\007\276\0077\252\275\316\2046\275\203:\261=\225\237\217\275\\\263\316=@\252\017>+\231\203\275;TJ=M\301\325=@\203\246=\304\301\227=\334\335\021=\226\345-\276\336E\271=\363\036\377\275\374\3445\275~\240\304\274\316\n\025={\222p\275A\2109=\272\006\234=}\317r=\233\023\274\274z\230\260\275Eg\332\275\367\353U\274\304AY\273\'o\240=D\177\377=|\272\217=\201\023\000\276\370\202\020\274\022\224\374;\204 \332<h\376\305=\311\321\037\275\233\333&>A\314)>\252{\016\276>\257%>\257\344\205\275Lg\032=\332\337G=\201\350\355=\314\341\201\275\215?\226<\'YQ=/\\P<e\026\347\275\237j\021\276;X\336\275\2031\277<\016\247\"\276jA\227\275#\350\004\275\310i\202<\023\034F\276\301U#\275\003C\350=\260\211\360\274\254l\326=\254\326\036>\007+\272\274\020\347\267\275\251\367B=;\244H=\303\023C<\302/\216\275\352\t2;ud\200\275\315\340\257\275\321\230\267\275M\313\365\275)#\036>]\335\360\275\254k\027\276}N\204<\344U\376=\t\241\311=\263\335\n\275\244-\225\2731\033\032\276\222\306\030\274u\0068\276\302\\\342\275\0032*=BP\010> \246\225=\316\205\273\2754d\253\275\264\222\247<\263\221\271\274\013g3=p\025%=|\247\326=\343C-\276\270f\331=/\300\212\275q<\246:\257]\257\274\232\302;\2765\356\231\275\367\357\007>\007`u\275cs\211\273\223\020\333=i\234|>S\215\252=\"\347\257<I\223\222\275\375\256\221=\327I\231=\207\036.<\325YP=D\232\316=a1R\2761\303>>mQ->c\322L=\243\233\235\275@\327\365=\345\271\270\274}\337\262=\234&\013\275\334\275\215<\271\306\336=\233\320\007>B\336\346\274\241yV=7\375\017\276NRp=\3777\303\274.h >@ 0>\267\035\013\275{@\204=t\025\212\275N\247\325\275Y/\216\275\030,\301<\346P\215<:\332\312\274\022\312\000>\001h\021>\247\205\277=\026\277\257=]\341G\276#\\\224\275\253a\270=\037[:\273t\351\006\275\201\177<\276\207\347\371\275*?\034\275n\211\3448x\004\316\275\n\270$\276\372~\274=\374X\206=\345~/;\321\367\314\273ZQ\007\275|\336D=\261,q\274\027\017T<\2235\311\275\245\254\201\275\300\307W\275\327\376\311\273\277\3677>>jN=\273\364\355\275\257z\252<.\257\345<I$\321\274\331\245\010=\236;\033\275f!\271=z\327\020>\220\215S\275\2374\260=\302\034\272\272\365\251\203:\224,\242\274\033\323\240\275\370\372\357<]\242\345\2725\271v=[=\376\274\276\335\326=ak\004=\307j6\275\013\274[=>\t\266\275\006}\036\2761\346\203=\002/(\276\302\224\\\275\010\352\315=\244\001\222\274\220\270\215=N\202\n>\263\\V;XJ\001=\270)\036\275m\234\275<\'M\351=\233\317\032=bH\366=\211_\000>\3674v=\204\310\241=\363#3<\035>F=\367X\240<S\036$\273b+\203\276%\010`\275\010\316\316\275\255a\317<\2738S>\3556P\275\\\315\210=N\203\304<C\000\376\2740\304\333\274b\367z;h\211~\275\205\333\256\275\3639\014>\247X\203<wa\302\275\346\2266=\227\224\240<\026\210\314=\321\243\362<*\363;>0\344\260\275\221\236T\276\256r\251\275\344\303\027\275\276?\224\273L\205\370\267\301\276\210=\241\010\230\275\n\331\032\276\206\227\306=\341y\016\2769\033(\275\323\023\360\2744\343\250\273\n\301\321\275E\006$=\255\262;\275\254nh\275V\376\256\275KT\255=\350\177r\275\327\302\021=\207\353.\275\211\362\224<i\020\347=f^\006>\304\212P>\257\226\376=\232z\374\275\027\251d\275\327\301\n\275\207.\032\275?w\276\274\020\177\216;\323\256\036\276\221\'\200\275\363\356\026\276\345\367\367=fi\235=\245<x=\201y\006>\341m%>\036\204\274\275Nm\314=\325\305z=@nA\276\225f\360\275\264\272\370\274\350\"\307=\027$@\274\322XV\275\212\374\261\274v\275\302=\230 l\275\234vX<\265\371G>\221w\364<\2568\234=\004IT\275\325h\335=D\326O\275\"\243\341;BV\345\275\272\356\007>!\t\316\274\300\035\300=\367.T\274\304!s\275\270\254\200\275\236\243\370<d\372\310\274\250&>\275\232\240G=B\272\n>#\354\247\274-\355\240<\267Z\275=\215\010\014\276hO\017>\346\030\365=\314\262\326=\211X\274\274\377mr\275\224K\226=3\234\223=\327H\213\274\2578\273<\217\277;\276\221\355\005\276\374M%>\036\004\261;\353\016\363=\351\357\222<\214\224\346\275\031~\345\2756\366\244\275\254Y:>\327\336\224\275\266c\267\273\034}\301=\020\2133=\337\013\261\274\245F\034>l\256\260\275{\255*>\320Y\026\274\3712p>\373\265#\274I\336\214=\215}\235\275\316*\255\275C\305\304<\220\277`\276L\233\325\274\246=\202<\321\245\325=\312jf<\235\352(>*\266\307=\262\352\331=\204\303\035>\331\353\275\275\257\223\034<\371\033r\276\217\350\350=\270\310\271\275Vt\224=\2244\274\273o\255\315=\316Y\353\273^>e\276C\220\323=y\\\200=\326\017Y\275)l\n>\225AR=4\031\336<h\234\377=o]\261\274n\214\n\275\305!Z>c\343\265\274\350\3774>\375\2459<b\332\002>.\347\212=\360\257\201>\270[\037>\204\362\306=\365j\267=GS\007<e\0238\273\326\370B>\n%\310=n+\204={\316\037=U\300r=\362oa>0p\333\275\247\337\311\2759-\243\275\255\004\027>\204\342\231\276y\222\243=i\301\327=\3300\234=r\037\273<\331\256.>\363I)\275\220\205\275\275\035\"Z\275\363+\017\275\222Q1\275\323{\205;\337g~\274eJ\207=\374\017\211=G?\"=J-\214\275\373@\331=T\354\227=\343f\243=\000\322\240\2758\023[>\3506\235<S>\031=\002\257\335\275Gm\017\276\330\305^\274q7\357\275\265\213X=\002\323\224\275\321\356R<\302Hh;K,P=C\257E=\022]\256=\216{H\276BZr>\\\325\023=1Et;+\375f\275\266y\330<[a\301\275V\366\237\274}\244\303\274\263\264\013\276mq\244=\304\006\200\275\226uc=n\024\251<\202\255\321<\250\321\315\275\310U\373<d\203\243\275\303\275\201\275\000&\310=\320\375\255\275\355da=\214\225\010\276 \217\373\274\031\356P=\361\373*\275ZN\266;\263\201\271=\273\360P>\323\253\254<U\250M\275%i\262\274\372\'\025=\304\205\242<#R\346\275\372\307\345\275E\024\237\275\010b@\275X\256^\275\264\317[=\2121\276\273?\265\277\275\301`\356=#\227\007=-\266\251=\247\345A>\340a\305\275h\214+\275\306tn=\365\220\337<\320\037\253<\322;\325\274R7\212\276\0003\205\275\314\305\007\275g\2061=\276\247A>\324\207\344<\\\332a\276~\225w=\342C\035=[\263\016\274Qy:\276\276\336\006=\217e\"<\230Y\002=\364V\207<[\315\372\275\303k:\275\202\231\234\275\254\215\026=R\037\346\275j|Y\274 \020\360=iL\023=\326\305\n\276\221\335\274\274\371\032*>\300Z.>n\321\014\275Ls)>jZ\242=H\354C=eR\377;WE\033\276*\224i\273x\020\367<\374!\314\274\363Z\013>\n\276\005\276\2114\265\275W\311\307={h\310\275G\342\224\275\214\363\014=Q\342\202=\t\304\333\275\365\324V\275=\221\365;\3751\022\276,g\203\275\303c\307\275\230\357\333\275\356\334\223<e\377U>\360r\247=\325\264m\275\351\3175>\005%\234=\265\332\262\275\242\211\322<\307\306\213\275F\205\217\274\006\020\321=\362]\355\274\0035\326<Q\275=\275\020\243\\>\350\024g=\212Y)\276#6\272=V\004\246\275\273V\232=7\245\260\275\030\357\177\275\225\030\332=\347%(\276\360\n\207<Wb\260\275\356\236E\274\026\003y;\327\'\275\275\202\236W\275\242K\236<N@\332= -\237=\307(\376\275\253\367:<h\033Y\274A\277\223<\032]\017\276Nc\242=\326\0373=\324\275\236\274\352\017\305=\322\217\321<Sa\004>zf\031<%M\206\275\303u\315\275\326\325\333\274#\257\n\275\232\336r=\306P{\275#\315\205\275\272\"9\275\260z\262=F{\204=\220\214?=\263U3\275h\323\353\275H\r\341<\231\307\335\274\311@W=<\\\336\275\314\204\320\2759\337w=\236p\355\275\0018\207=\035>\303=h\020\203\275\315@T\275\200\254\356\274!\375\240\275\004\204c\275|\001\327<\201\204\014\275rH\273=^T\205<Wz\023\275\360\032B\275D\221\220<9\231\r=\3012U\276s\211\372\275\265\203\331=?\360E=\037\270\344=j\331\232=yM\204\274\313\024X\274\n\031\222=\246%D\275\300k\233=\321\"\027\274\350B\270;I\333\000\276Q\331>\276Y\262\277=y\365\006\276\201\362\202\275\210\370\221=\315\010\246\27533\326\273\242!\352\275#E\340=\330\006n\274>\256\017=\255:\002\276\'\310\351\275\000\344\231\275u\265\322<\300\277\211\275r\273\217=\262\001\035\276\243\221\244\275\004`9>SBq\2756\224\240\275\270\306\356=\"p\242=)\332\243>.W->&\243\035\274\222\361\016>\345N\034\275Uq\300\274]\034\025\276\355\023\364=\310z\200=K\255A\275\320P\265\275\227\322\273\275\017\000\315\275\025f\201\2750\217F\275\3335\345\275\315\234\256\275\r\347>\273\375$\213\2759\247\t\276\341\031\335\275\000~<>\353\245\271=p\236\320\275\314\036\211=5\006\230\275\267\360\211=\374\033j=\237\322*\275\351\026\234=)\330\007\276\361\3337=;\334z\275H\264!=\267\247\222\273\027\370\023>y(\233\274\n\243\376<\214\023\023=\306\233\206\275$\241\253\274\263\256O=\3476\335\274\337\242\t>\215~2=WZ\230=5\342,<\277\365Y\275^1\324\275|/M\274\277\203\317=\007\334\300\275\3718/<\321\260\377=af%\275\225\010\216\275$\3417=\243\266\325\275[O\235\275ZSD\276)\227\271\275\365[\314=\240\255G\275\001\266\375\275t\345a\2767\324\247\275\345\365X=\375\026\227=0O\272=\252\212\314;\325\255\314\275{<\263>\346\267==[\376\242<\\V\352\275\226\324{\274\003G\260\275\277\t\n>qFm<\312\351\t\275\256\003\231\275\216\247S=\372S\351=\346z\007>\245\232W=\274q\201=\326\320?\273\354\3123\276M\226\203=\013\226\211>d\305q\275\005\001\332<3\356\332\274d^\034>\325\315\304\274\374\362\236;\016\277\342<\004\201\026\275`\206\272\273u\262\251=]\227\300=\255=\r\276V\0250\276\243%l\275\212n\367=\366x\007=\'\255\334<\252\024*>\352\316\336\272?\235B\275\021\357J\274\370\377\277\274`v\205=\251\272\313=S\270X\276\2452\273\275\237J\245=\033\242\362\274:!n<\273\263\211=x\375\313=J\365\377=i\346\245=j\243D=\300\302\260\275\332\372&\275\343\276\345\275\002\363-\275\256E\320=U\242+>\377\230\313\275\025\342\217=\007\305\343\274I\t>=\1778\350<\253z\001\276(T\006\275\242\264\216\275\212\211\244\275\030\371\254=\006P\333\275f.\252\275\224\224\375\275\323\007\000\274\330Fh=:F\023\276T\252\303\274\335\340\273\274\206b\201\273\235\013\353<\371\241\004\276\312\255~\276\252\002b=\354\343\223=N\004\000\276\326\010x<\260\341\212>T\275\322<\255\211\376\274\264C\306\275O!a\275\341[a\275\275\013\234=)\327P\276p(;=\234\316\005\274~\341\221\275\266\006\226\275\322\301\"\274\005i\330;9\273\226\275\352\276\352\275a\031/=-~\207=\253\220\033=+\343\323<\265\020\320=\211P\315=\363\201\216\275\031\201\304\273\037\t\t>\021\3548=\030\347\213=\006t\354\2746\333X\275\365\253\004\276\327\026\242\274\033\204 \276\017\361\315=\345\243\223=\3400%=\035\255\006\275\266\247\311<\241\347\211\275b\211?>`\'b\275r\231\334=\261\246\302=(gy;\320\017\005>\214\263\211\274\001\227\351;]\241\231=\236\221a<\337\3617=]\035\\<\274\236u>|Z\260\274\223To<|\2451>\236\001\341\275,b\261\273\215\374\363=\351\306\270=!\374\n\276\226\337_\275\245C\266\275\316D\242=\231\014\257\275n\244\034\275\250\311\254=\372\230\242=5\305\330;\005\220\203=[\326\360=\031\333\215<\364v\021>\263v)\275\360\272\250\274\211\021F\275\346\007\351\275\300B#>\'\254o>\343\361\321=\3072\246=\361b;\276\250\230\033\273%D\217=_>\324\274\014P\232<\t\220\003;\232\201\030\274\223\332\346\272b\213\031>\325\273-=\357r\333=H\207\370=Q=\'\276=\267\317\275\346QE>u\256\344=xE0>.\304$=\n\325\337\275\263\323\340\275\370\235\227=HQ\260\274LeL\276L\t\210=\264\267>>D\036J\276\252A\\>\215\236\265=5\215t\275\3602\325=\030\270\206\274\371\007\306\275\333!\007\276\215\023\353\273\3409J\274\017\346\325\274\004v\243\273\332\016\004=\305\203\001=\006\217\335=\301\265\214\272\365\035\027>\344\272\206=\343\313\010<G\352M\276\357\021\'<\363\203$<Kl\030\275\265\335G\2760\267\217\275\243\360\273<\313\335=\275\343\3147\276\222b\037=\016\346\256\275\311s\017\275<\246\247<X\\\014\276\354\255\353=\024\237-;\225G\002>\323\036\352=\354W0=\351\232\220\275oUq\274\265|\223\275)\317\330=\232,\251=2\252\246\275>uS<\222d\313<p\347a\275\233\202j=\214\246^=\035\253\023\276\'\035\007\276\256)\200=\326\013p=eS\367=\337\3027\276\331\351-\275`\314&=`\007E=<\330;>/4{\274\222\361\261=?\334\013=gD^=\"\262\002>7\352d=\311\2425\276\260\357\262\275\237\337\356=\031*=>N\301\342\273\016S\370=\371X\273\275sN\r>\n8\217\274\023\tc\274\257-\323;\333\234\207=H>\220=M\362\220\275\321\250\"<\371\267\257=LI\200<(\360d<M\373\301\275\267tZ>\203\362\025\275rJ\022\274\017\224\362\275\r\244\323\274U\021\313=(|\336\275\272\014H\275#1y=.\266\034\275\272F\032>S\302\177=\254\005E\275?\034\360=\226+\352<p\357J>\354\255*\274 \024y=L\253\032=-\020l\274O\320\232\275\025`\322=\006\3301\276\203R\327=\364\006+\274\305U\341<U@\332\275.\375x=|\243\201=\223_j\275\364\004\253\275\023f==\275\'\232=\262\032\225\275\321\017\236\274\351\3037>\031\2131=\336?\031\276|\307K=\265\001\220\274\244\326\227\275\031>\007\275\341\206$\275ue\274\275\032=\343=\n\376\225\275\222\021\300\273F\003\231=\272\205t\275?\266J\275\000\224.\276q\232\252\275\205\206#\276#\260\307\275\034\206\035\276\345)\'\274A\036S=f\322c=C0\272\275\252\315x;\031\302\024\276r*\235=\020^)<\307\365\271<\023\t-=m54<\311\000\017=\225&\233\275 \232\002>Yd%\273\212\252-\275\016\276\270<a\n\312=\r\354\263\275\267\243,\276mr\245=:X\220=\325c\006;F\322\375\275v\331z\275+VC>n\377\341\272\334\230\257=\'\275~\275{VE\275}\2025=E\365\026<\312jL=2\003\201\275\251\334\207\276\334>\227\275\365\325S>#\236\214\275\215\324\n>\321\025\230\273\2155\315<\247\\\006>\253\311x\275\2255\331\275\217\300\375=\331\226\022\276\356\2673\276,\221\260=\340\342*\276T\352\324=PL\205=\007\262\177\275\340G\372\275\357\372\350=\010\2219>\255S\257=^ *\275\230\027\031=\342)\321\2747R\267=\2360\037>\302:\277:X\033\205\275\216,\302=\n\254r\272\217\323_<\005\373\001\276\236s0\276\362\001\001>\377\337\231=\214\341\273=\354\263(>\016w\016>~D\326=\276\210\031\276\307\253:\271\322\304->\353*\177\274\317\346J\276\030z\006\276jk2\275)\210`=\r\306\201=\366\222\254=\200\351B<\006}\332=N0\260\275\360\255\260\275\320x\025>\207\001\005<\351f\207<\202 \215>\226Dg;{\336\245=\t\255\026\275*O\313\2745RA=\300`l\274=\331\371;=w\205=n\261b>,8\340=\0306\263\275\364\243\301=\260\264\271=\207hi=\2046\315=\251\034\001\275x\rC\275\316\037\242=\252\364\241<\261\'\r\275\271\243)=\250S\017\274~\227\213\275\351s\213\274\245\311\337\275I_\247\275\330\210\234\275\224Q\2159\376Z+\276t\\\024\276\212\226\035>\361\324\330\2753\261\034>\344j\t\276\310b\203\275\325\373\247\273p\357X\276\244\327f\275\006.n\276\247>\336<\201\036\221=\372\246Q\276\331q|=A1$\275\0324s\275\321/\200=\203\275\322\275\372\030&\275\000Z\212=e\320\220\275\361Bn<\344\233N\275\266u\001\275l\275\245<\271\315\033\275\033a\334\274\023\350\036\276\272\233\213=\002\3365\274qRQ=\252\346\314\275j>\232=\010\327\225\274tN\025>\205\000\225<2{^;Ky\206=>.\357=\262\016j\274\333\202\370\275{\213\352=\'\014\">\007\001\273=\0274\234=\035\n\037=_;== \351\013\276v\3754\274(\232\214\275\227\221\254\275\321d\232\276\255F\340\274\302c\310\275\265)z\274\020\324n=\310u\017\276e\177\317=\312@\342=`\'\350\274\024v\223\275\342\341F\275\246\270\334=2\177.=/\024\302<\205h\2229\004\267\252\275\251U*\274\306<\261=\333:\032>OCS>3\354n=7\336\270=d\035>=\265\205F\275\315\223\222<\330S\301=\264k\353\275I\3206\275\340M\n>\231\363\314<\220\311\026\275\274\032b\275\376G.\276\363\036\353=\223\234M<\030\250\321\273\356s\357\275\241\272\334=T]\237\274\263\023E\276)\362,=*\036\357\275)6\311=\246\303\323=\23165>\025>\306\273\274\302\245=UY\354<\263d\215\275\314\"6=\324c\032\276\032#$>JR*\274M\272\316\275\200\334\313=]ik\275\317\0170<[=\200<\307`l\275\270 O\275\2610]\275\220\032\255\275VA\003>\355\271A\275\214\236u\273q\314\255=O\210\317\275K\224\204\274\322i\310<\371\234\026\276\272\244\340\273\0024\032<\307\374\313<\262\004\344\274\302\222S\276\306:\034=~\357\274\274\304\261\021=\344\331\253<\277\341\035>25l\275M}Z=\252\341\220=\374pY\275\004\327\247=\nV/\275\256^\n>0\341\014>\352\371\225\275\304\341\333=pvQ>\245\002\007<\375\317\\\276\31312>\006\r\002>\250O\241<+\211\324<\177\177e=\247\021\"=\320\341\366=n\362\3529L\225\266\275\327I\024<\300\2362\275(S\221\274kdP\273\247|\304\275D\244\335=\177u\232\275\263\260H>eWj=A\372\330=\223,\213=\001ly=\244\022\202\275P\263\362\274\317\262S>\022\304\314\275\273\363\360=\224\271U\275\223*\250=C\211\324=\"\236W=f\020\275=\335\243\240\275 \364\010\275\300\005#\275\351\036\016==\347\306=\301P*\276a\276\265=\366&;\276\'%\245\274b\203Q<O\370\227<R\217<;\201Vo<\005\013\227<!9\247\274\225\277\010>\017\342,>\022\030\032=\362/\210\273\306\376\273\275q\200\225\275\r=\211<\206\213\361\273\356\343\363:\r\2337\272\250\246;\275.\217\362\275R8g\275\203p\020\276\241\325\273=qj\201\276\350^\231<\016\374\001>\310\365\333\275R5\250\274\314~\016\275\003\016\025=\202t\257=j\274\250\275\003wu\275\234%\000>\340\241\201=\266C\241\275\274P\023\275\311t\245=27%\276\311\035Y=f]\361\274n\262\222=\310c\211\275;\311\224\275\343A\322\2753\347Q\275[\0325\266\030Y\013=\230Y\323\275>\250\233\275\373\216\007=fo\214\275E\311\277\275?\345s\275\r3a=\217\246\210\275\305vu\275\207\335\223\275\362O\013\276\237\205\204\275K\376\362\274\316Sc=!\377\363=\360s\022\276N\323U\275\273i\026\276\0310\035\275\202\302\035\275\315\020\330\275\227u\034>\264\345\031>\211\361\223\274\310\2079=f<!\276\231\360\031\275y\3233>\323<G\276\305\270\204\275F\003\007\2747j\\>\370\335#\276P\252\216==z\316;\002\257\002>E\236\304\275\335el>`F\362\275\365\247\024=\250u\267=YpX=\263\251\023\276\330RE\275\225\231\267<\031&\202\275\260\024>\276\002\347\314\275qd\244<\313\010d\275\242\201\252\275k\2651\276\230\333\252=\033\360W=\365\332T\275\025Ea=X\027\335;\265-W<\002Y\205\276g\204\006>4.F\276Z\255Z=\371\332K=kw\253\275\002\022\236=F\035~\275\360\365\213<\300M\210\274{.\350\272>\377\314\275\'\357C=\235@\017>\307Y\252\274(\373\215\275p\371\202;\366p\307\275~\021\223\275\341\271\223\275T;\335\275O\n^\275\350\326(=\201\231\031\276]F\375\2756\240P\274\200\265\333\275\254Y\240;I\024\033\276\242\372<\275a{\031>\347D\257=\245\255\343;a\343\251\274w\037\237=\202\370\025=ib\031>r\252\010\276\236E~=U\236z\274\301IM>\304Mc\275\230!\271;\"\205\330\275\271\324\212\275\377\n\265;\263^\024=l\274\316\2743\244G=\241\036%\275\205\264\227\275\275D\036=\216`\223\275\346x\343\275,\354\344\274\000\006\325\275\022\331m=\017\251\352\275\374zl\275W\032G=\315\\0\275\301\007\240\275?|\030\275\0322\215=\200\331\003\276X\225\321\275m\237\303\275w~\213<K\371\260=\261\332\271=\331\3179\275\221\247\316\275\244;G=g\010G\273\001+\217=\000\323\211\275\357AZ\275\224Zm=&_\017\276%p\351\273\235\325\t>z:\245=8Y\002>\255\250\326\275\276\377\322\2728\004\274=\335\214\234=\365\347\241<Z\200\002>\246Ly\275\032\267\215\275F\364\033=\016?\312\275 \333\034>\236\014\276=\202$\326=\201\342J=fu\351<\031\2727\275\230\210\254=\346#\247\275\240{\335<\300\235\007=\333V\r=Z\370\003=\276\230\237<\021zB>\242(\010>`\276\302\275\213XA\275\004\246\232>\353\314/\274yu\216<\351\313\005\276\357\214\310\275-\013\306\274\210Q\032\274\2012+\275\342c\\>\010\245\002<\262^\202<C\343C\274\301\335y=\352^\017>\314\000\216=\367\031\346=\236[u<N\354\032\275\255\307\327\275\3479N=I\240\317;&\001\363\274!-\236\275\\\371\251\273\216\301\001\276\033\366\313=#\'\362\274\020\3679\2755\330\003\276H&\003=\034\003;>\301\357\032\276\021v\221\275c0C>\033|&>\243\373\205>#\304(=\373\273\270\275\303.Z\275c\327\336=\375\276\002=\345\363\t\276\206\032\243=\024\004\245\274\320\376Y=U\245Q\275V\007p>\352\216G\275c\343\370\275\344\241}=\355\235\000\276\223\326\323<&]]>\352\305\206>\205Gr\275ARB\2751\221\267\275X%\270\275\233\356j>[Jj\274@_\211<8\302\210=\364\345\260=\355Y\013>w\334\323=\024\025\302\275\ra\235=\242\314x\275\305\021\200\275\307\253Y=\330\351\215\275\216\003\214\275L-\345=\261\320\001>\361\201\366\274R\242\305=f\022\323\275]\214@\275\232`\312\275\014\231\323\275\271\010\306\275\336\277\275\274\346\245\346=\032\247\231=\214\0201=\370\305C>\r\2453=\036\314\"\276\223J\007\275\"P\017>\266\334,>\207\003\276=b\007\252\275\372\341#>4\361 =\3700\022\274c~J>\354@x>H\333\030\273\201\006\203>\315\337\316\275]\274.\275\320\320\323<\252\030\267\274\350\0051=\321g\216=\321\221\021\276Q\363I\276\336\251\327<\324\246\007=\267\315\340\274\347\237\004>\273\327\227\275w\206\027\276\035\002\325\274\014\315\335;`\'\216\273\237\351\004>\312\255\371\274\321\264\005>\010N\r>V\200\n=zjp\275\034c\017\276b\367h\276\317@\220=o\325\037\275Iu\207<U{\304=r\252\250\274\013\334W=m\256\301\275M\256p\274.\177\247=\273v\373\275\034\315\306\2747I\242\275\376^\374=\272\345\035\276\357T\331=\235\256\r\276\236!\n=\210Z\215=\375-8=(\261\031=\375\255J\275\311X\034=\306\211J=\257\323\227<eOe>\205\352\242=\364\"m\275\202\253;\276r)\331=IL\374\274z\304/\276\227\314\n\276\235\016\245<\t\364\246\275\203l\372=\373\342\223=\327\327E>-\230\305\274\301\225\026\276\374\361x=\355\021\203\275f\315T>\260<\234\2757\256\t=\215hV\275BE\033=v\024\326=\361\000\212;1f$\276=\254%>\231\255 \276\017\350\203<i\245H\2753\023\320<\221p\211\275g\212U\275;Z\255=K\216\355\274\3631\313\275<\375\346\275W\352G>L\250\215\267\257\344S=\267\372\035>s\315\370=\014\301\207\275@_?\276\274W7\275C\336\262=\350\354\033=x\376\021\276\272\272P\276\372\264\252\274[\261F\275\371<\014\276Y\366<>\303#\261\275\277V\304<\n\037\276\2756\r\334\275W\340\031=\371Z8=\366;\253<\263\250e\276\261\232\017\276\363\263\245=c\211\005\276\247\257\020\275\351\224 \275\326\240\263\275\263\234\225=\336\252a<\'\0063\275\244\014;\276\314_\005>\001\217\350=?-\254<;4\350<\270\320\223=\327e(\275\010\240\234\274I\226X>\n33\275\321\214\243<\242\276v\275\024\036E\273\304\3572>\217\307 >L0\311\275\025\375\254=\003\330\220\275Y\223\311<+\365\302\275v\236r=\026c\032\276\001W\242<\310\256\331\274,\004\230=\354:\241\2755\371y=\033w\037=@\315\233\275\250\262\240=\033\257,\273\237\211~=\304\302\207=\216\342q\275\211M\343=\3051\346\273\023\"k\273A\206\264\274\226O\272\275\341cJ\2762\204 \275ha\244\275/\020\000=\317{\310\274RW-\275^J\242=\231\203\211\275\206n\377<\242\316\256\274\205b\226\275\331\005\204\2754\304[\275\362\216\202\274d\024\002\276\362\030W\2765\273\235<\324\263)\275\321+L\276\205\no\276U\376\345\275-\264P\275{!a\2753\342\324=\273\335:;\241&\273\275\n\217{\275$\202\303\275\317j\340=|/\357\275\377\033\205=@M\275\275g[\366\275Hz\252=\244\205Y>P\332\312=/\202\323=P\030\331=\222V\271=A\2078>\244\324>\275\340\322\376\275>mM\275e\334\255\274\254\\\245\275\2128\200=\376y\322\275Vh\204\275.\022\231<\225N\375<\254\223f\276\275\232H\273\n\311\201>\216\250\200\275\377\347\225<fSz=m\211*>\3747\375\274\370\352\206\275\366Z\303=n\367E\275\353\340\210\275\254,\247\274\354\237\277<\022\340\210\275\341\230\350=AQ\271\275\237bT\275?\346\214\275\002\303\n>\332L>=Vc\245=s\255t\275p\013w=\254\241\006<t\217G>\n\3260> \303k=\305*\235\275\034\354,<C\343\271;+\264\270=j\257\307\274\034\027\377\272\341F{\275\260\270\331;\350\326P\275e\230\203\273@\341\356=\310\020\036\275\021\344\025=\235\357\020<\004\343\004\275\272K0=\345\373\003\276\345\010J\274\013A\373=)\005x<d\212V\275\362\210\271\275P\233\211\275eV&\276\026\243\256=|\274\213\274\370e\201>\306$(\276\337\354\327\274\274\231\374\274\323]\215\275u\2557\276\013\004s=\373w\251\275\230|l\272$>\017>\365\236@\275\375\205\205=~~\372\274\356\341\207=xn\315\274\375k\033\276G\361d=\332\265\317\275)\276\222=\357\030{<t\232D>\276,\275\275\352P\225\275!\\\235=!\340O\276cf/\275\254\243\327\275\364\347\324\275\241\301U=\232x\234=\324&\244\275NcM\274.Qp<\010\340F\274\304Oz\276\re\356\275\330\237\024\27605\251=s\343\263\275;]x<\242MO>\336=\310=\377\376\352\275\026\200\004>\337\234-\274KQs=\217\346\354\2754\036\200=0\302\242\275F\371\204\276\336^\251=\342\'\302<=\277\327\275\315MO=\243|\023\275\321u\016>A\0029\276\013\251F=\336\232\367\275\266\324x\275\005\366\002>4/\256\2742\376Q<OA4<\016sI\274\313\212\035\272\305\025\003\275V\034m\276\306~c=a\017\037=\354\371s=\001\274H\276k\324L>\243\300\202=pt\"=q\"q\274(\202\367=\261\2311>S\242`\275`\341\037\276]#->\351\242\016=\017\233\272\274p\002\302=\223\t\216\272\234\351U\2753\233\014>\325\324\024\275-\352\031\275P%\235=\225\211\317\275\203\001\333\275\370c\277\275PU]=\3667\377=\301\205\244;\302\237\274\275\355\235\032=TQ\235\274\315\t\264\275\251\373+\275R\267\352\274\003\263-\276\202\372\202\275`\264\253\275VI-=\202;\211=\\\277\354=\310,t\275\270\260\235\275\267\336\216\274C\236\235<\321\275/>*\245M>1\'\007\275\312\270%\275\375\331=\274/\021\">:|\316=:\375\321<\251F\007\276\016\3104>p\353X>\327U\361=\233\347,\274\251\363\251\274\201\261!<y\033\245=0\"\272=\274\210\177<{\230I\276\037\242\203\267(\244\005\275\231\t\330<\342DE\275(B\034<\"\351[\275\222D\213;\225Ma>\337E\370=\362\373\275=\245\256\006=\300}\360\273\360\242\310\275\244,o<\316\335\361\2749=\356<hi\032\276\303\031-<~\234\331=r\266\362\273h\350\251=\030\t\224=\251\021\357<\024u\263<8\271\032\275\034\313\010>j\3759;\300\020\375<a\325L\276d1\002\274\235\233->\333\244\014=z\260\260=\013\2446=o\204\025=4\322\007>\240\255\342=0\214\322\275\262p\013\276\3435\344=]\001M\273\244V\320=\200_\240\275\314X\234=?\342\234\274\352\230\204;\315\371\262\274\33570=#\353\361\27559\272\275\220\350\034\276~\234\243=\373\004\332=\206BH\276\\f\364\274\373S\303\274\3109\220\275\277\365 \275~\006\201<\236\024\320=\303\203\303=3\3670\275\312\007+>\0367`=V\270?>A\204&>h}s\274\302\241\274\274\230b\263=W\340t\274\ru\306\273\377\001\276=\313\336\020=\372\031\325\275\367[\026\275\017\320\204=N\266\273=+\366\231\274;\327.>Q]P=]\311\320\275\212\236\366\274\231\261\263<\"l\260=?\273\023=\271\001\235=\320\177X\275\322[B>K\034\320\274\3708\021\274Z\316\031\274NW\300\274\301\213\235<n\021\323<\3066\361<m\002\211>\2749\266<\325\327\271\274G\251\316\275\205X\020>\'a\373=!\222\263\275Y\273\002\276\022\230\331\274\330il<\207\n\\=\210\266\307\275\272\376\263<4\2157=\330\257\220\276\261-\224\274{1\252=\2247;\276\262\274\033=\211\260\263\275z\033\315\274\253h\023\276+>(=\265y\361\274H\303\211=\177\004\036=I\346\031>\2716o\275\001\246\216<\310f\333\275\273\343\n\274\211\005\336<\300\314b<%\274I\276^\014\373\275w8\314\275\201\342\013\275\3300[>.\t\324=\250\377\363\275\266\376\264\275\236\352\367<\261G.\275\034/\234=\r\277\247=>@\016\274\251\232\277=\215\323w\275\307\374,\275\303QK<f\261F>\330\353\373\274~A\357\2756C\201\274\224\303\\\276!WM\275W3\314=v`\262=)\265\026>kO,\276\242g\306\274\031\025v\275\263\030\235=\320\344\031>uB\306=\034\260\265=S\346\r=\305\234\034\273t=\233=Dp\336=i\330\254<\n\267=<\375j\221<3\204j=\263\337\007\2758.&=3#.=\215)X>.\262t=\253\256\255\275\014\033\r\274#.\317\275\2332m\275Gl(\274\217\177@\275Y\313\237\275\177nd\276\261.\220=4\323\027\276\306\312\240\275\202\311-\275\200\326\221=/\307z=\025\365\246=\324\331\355<\250\312\216\274\003\224z>\370YW\275e\026\n\275\245\365W\276\216c\257\275Y\212\007\276\246k\037\276Z\244\323=\014\362\237\2750\311\340\275\344\377%<{\022{=|}\214\274\276$q\275\246\212B\275\304&g=\341\351>\274\000\000\275\275\01661\275\253jX>\204\346V<6n\210\275\351 \226=\3103\213\275\262\024\r\276\234\332?>\335*2\274\367\217\342\274 \314\006>t\310\273\274\263>\204<DCS\275\346K|\273\372D\211=\023=\230\274\325\321\207\275\210\336R\275\333\245.\276\314\302M=v\333\001<Y{\010\276P\232@\275\005\374=>\033\243\020\274[=[=\350\207\313\275\251 (<\247\253\333<\203\000\037=\233\220\377\274\324x\370<\332<\263\274~\227\365\275\264]a<\272\037\272\275\277\333a=9\302\265\275H|q<G\313[\275\312\000\212\276\031\356\004>}.\224=gu\014>c\021i=\342\320\333\275\005\006\231\275Z\273\254\275:L\252=T\337\312\275\001<\006\276\367\266K\276M\2529\276\363,\235\274O\351\267=\374GC\276\374\370\213<\022GT=e\314\266\274\353\236\005\276\021.F\275\202\300\245=-\221\333\272\003\243(>\013\240\320=X\277\210;\200\307\251<\357v\000\276\266\301\317:\365/@=\214\242\211=d)L=*\344>\275\351a\311\275?\203n\275\264\307\243\274V\320S=Wk\227=\334\314\007>\003\032\036=\272\221@\276\220\225H\275^\312w\274]\276\221<K\260\214\274\247g\210< \010\031\276\362\035\330<s2\311=\373e\201=\242\356\312\275\017\032;\275Nk%>\221\025\006\274\035\177n<y\213$>\240\316E\275\335G\221\275S\217\257;\365\231\344=[\256q=4:\014\276\335\360\224\275]\274\307=\312\027\002<\000\300\336;h|\313\275\306G\316\2747\334\024\274\323\003\003;$\221\277\275\374Q\214=\212\020\263\274\031|3\276\025\352\211\275\316\204\356<\333\rZ;\324\362)=WI\247=\234\375!\275\002Na\274|\234\013\275\315\371\277\275\371\246\013>\035\030\r\276(\370\023=wm/=\220\315\307\275P\001\315;\016\320\225=O\3008\276\375 \317<\324G\020\276\301\360\260\275\362\251\260\274<vm\274\344Q\031\275\327)\'=P\376V\275d\212v=X\3620\275$\242\003>\005\001\267=^\225\"=s/\237=\334/T<\216\370!=\234\277\362\272(C\036\276\262\267\013=\004mg=;\370\355<\362+V=A_\177\2759\022?\275\351\006\206;\374%\323\274\253ni=\205\326\270=\210bz\274z>\026\276\205\345\345\275-w\177>m\261d<\004)\010>ce\340;\227\245\313\275(\210\361=\227\254\014>N\266}\274\030\027\254\274$\026v<\311z\204\275Q\027\356=\272\332:\275\300]\312=\376\366\232;*$\024<]\316\353\274\304\223,=\252\330I>\311\"\273\275@\245%=\310g \275C\212\026\273\030\330\205<=\253y\275}\335a=\370\220\243<\317\343\036\276\235\377a=3cV\2751\350\000=\022g\253\274\325L\313<8n|=Q\253:>\302\2723=N2\207<Kd\230< N\210<\013\320\n\275\032\313P>k\376\243\271\027\271\376\275K\360\331=\014\032\221<\0350D\274\243\340\342\275sb3>\216\302\002>\330q\327=\333\202\r>\001\331\364\274\334\337\014<\257\014t\276\263\255\226=\3570R\276\201\353\013=\264\314\364\274 \216\365;T\253\224=\353R\374=\352%]>\030\001L=[\311&\275\021\256\233=\377b\034\276\242\362\332\274\316t\000\275\004_\202\275V\333\343;\177\321h\2757\033\225\275\207@\013\276\261\315g;y\257\354=\307\037\221=\234|\247=\214\313J\276\217\360.\276rX7>\004\034X;\014\355\267=\357\027\027\276\252r\024\275/>\266=!R\211=@\267\006<\334\373Y\275\203h\231\274\347\360\212\275\261S\031\276\266\327\354=\375\331\r\276\200L\'\276\232C\022\276\273@E\274\207$\334<\026\217\306\274I}\214\275~\311m=\345\344\361\272\276\274N\275\032\277\005\276\370\211\332\2745\202\321\274=M\374\271-\355\233\275\302\254\321=\3234\251\275\341]W=\241\311\276\275\333\033g\273\253\374\254\273\203\200\000>\262\017\020\276\244j\306=\002^\017\276\362\033\227\274\211\226\\\276\212\344\212;\t\346\t=\241\263\263;\274#\207<\304\004+=8\225\017=N\240H=\303\r\236\275\000\355Z\2756\306\327<\244\300\224\275R\311\232=,\351\023\276\177\356\002=\001*\214\274G\347f\275\363\272\227=\2734\275=w\344\215\275D\002)\275^\017\275\275^\214\350<\005f\347\275\226\031\366\275\211n\347=\023g\252<\274\213\030\273\\LX\273\204\311%\274%6\260\274\270\207?\276q\222U\275\226G\327=)O\333\274\023\276\353=\033/]\273^\375g>\373q\362\273\340k\225\275\020=\n\276\362~\312=\374\350\031\276\356\037\016\276\343\032\205\275\331x\226\275\233E\016\274\240)\201\274g\217;=\316\250m<!\205~=L\222F\275;\010\361=\370\252\220\274\270\274C=\272\244-\276\242\377R\275\234\272\266<M,\326\274\260:6=a8\t\276\226iF=E.8>\224\025\211\276E\265\261=r\335\216=\001\312G\276\'8\367=\000\216&>\017\263\274<d1\021=\n\363\024<\365\341g\275xLT=a\263\022\275\234\227\263;\305\363\037>j\035k=\327[\346\272Z\r\330;PU\223\275\341\264\305\275EF\007\276\271\031\231\275\032E4=k\362\342=Cf\211\275\324F\225=\312\271l=$s{<\204\306\321<\214\235\331\275\007\277W<\300\261I\276\237\316\n\274\375\037\203= \214\r\275\322\301h\274\277\246?>\312\261\331\275\211\213\210=\236\313\354=?4\026=\366\275\300\275\001R\004>\232\234C\276Z\"\357=\032\307W<\265%O>\242\233\372=\032nv<\267n\300\275n\376\202=\234\3700=\023\245\372=oFi\276Q\271\333=A\r\341=\013\341\341\274\010\372\254\274\211\005\n\2762i\227<\027\311\365<\234\374W\276\274\300\307=G.\252\275\353\247\264=\322\032\231\275yM\300=\344\207 \276\377B5\276O\036\246\275\023\017D\275\367\177~;\326\364\251\275\2769\230\275\2675\336=i\255P>\177\330\264<(\307\033:fn\025>\247\234\203\275Ali=\206\254\026;^\311\266\275R\321\251\275\3439\215\275.\265\314\275}\026\361\275\361\264\222\275&;\316<\300\236\030\276\303\036\262\274;U\313=\362`3\276\234,b\275\207\254\266\275\344 \322\275\274\336\357\273\313f\002\276\014:v\275\372\200\272<%\013\235=QT(\275i\267\006\275\324#\210=\232\247\r=\307\255\240\275\237\3457\275\320\322\002;N\212\334\2751o\322=<\311e\275\236\013\226=\271@\220=\007\364%<\035<\023=\262\307\222=n\246\n\274w\345\233\274\313(\004\275\377\362`\273)#*>\217\005A<\031^\020\276\340T\256=\326\271\255=j\355\'=\023\274\303=\301i\177\275\377\352\005=\\\303\367\275?\301\277\275\236\265\002\276\212\226]=\271\372\375\2749Z\217\274/Z\232=\205(6=G\354\303=\364!\300<\336\345\032\276\230\361@=\177\013\263\273\263\203\206\275\353\372]\275u\3312>I\225\214<\337v\314<>\326\256=s+7<d\201;=\225\247\254\274\257\201&=r\3615<~\343\017>\270\003\243\275\276A\236\275\303\'\250:\016\347a=\222\220\227==\214\377=u=\246=\032\331\347<\017\311\227<\346,[\276\220\311\r\275U\033\222\273\217\221&\276I8\201=\"\236p;\002\027\304=\207?\234=V\374\225\275\334\201\260\275\263\325\377=\274\354\232\275T\3627>\323\262\245=\01488>|\014\361\275\203\034\032\275\237\030\216=}\223\244\275\275VS=\260\035\313<ir1=\3526+=\276\\\t\276\346\227\360\275\342\203\324\275\316\200\312\275\270\\\235<\2451\256=\212aB=\r*\023\2763\325B\275\025\2511\276\246\006\320\274\323\3614\276:&\243=\371\327\206\275,CJ=W\367\016\275\334\006\224\275\022ud\276N\231_\276\373\\Q\275 {\347\275\210\001\264\2751\342N\276\276\272{\275=\367\352=\340\301\205=i\374\365\270\370\306\362\275\325\374\205=\035O\023>\007\366d\275\202nh\275\323P\275=\210\333\256<A\312D>\275\272\013\276(\301\302<\345J&\276t\223\030>\205RJ\275d\340\222\275\364\326\213\274:\337\330=\302Ak\273\035\007}\275\315\271K>\033\010\231\275\307\315\035=\300\372\205=\004MO=\232Y\303=\323\014\244\274G]\213=`b@\275g\245E<\330/\233\275\021\217\014=\007\312\310=\010F>\274\273,f>[\2266\275K\005B\2750\376Y=\330\357\275=\337\026?\275\375j\006>\267;\234=J\024Q\276\233\t\014\275\022\355S>/dZ=\3747O\274\t\235\301\274\20361=\225~E\275g\030\201\275\365\232\333\275\223\266\374\272\323\322V=\346c\253:p\367\255\275z\346f\275\024:d\275se\267=<zl\274\341\240\357\275_s\275\274\213\313\010\275\033\031l;\257g\320=|\253\023\275\350d\267\274F]\344\274\243\037\361=\204/\217=\213\230\224\274.\022\336\274\033\3657\276\033I\022\274\351<!<$\035z=\2263\024\276\210\367\240\275\276,\032<\213\346\211\275P\t\347<\323\024\306\274\312lx<@\350\300=7\037\235\275\":~\275\361\252u<3Pf=\352\376\322<\364\362Y:O\331L=\214\301\305\274\026\241_=\245+\"\275\366\024\034\274\332\034\224\275C\265U<dmZ\275\216\177r\275u\215\320\274o\370$>7Z\016\275\211[!:\274\3708>\322{\323\274m\026\334=\351\272p\276\367\256\237=\023$\232=\353Gr=7z;;\035\250\001>|\304c\276\270\352\251\274S\252\375=c\177\352\275}\014\024>X<\216=\323\273T\275t5\177\275eNq\275=\370\334\275\310,R\276p\315\377\274\373\342\037\275w\307\206\275\336\020\350\274Cy\310=\312\276\351\274\221)\220\274\300d\266<t\200\253<\205\317\221\274\326*\177\275\356\252\000>\2749\320<h\266\013>\234D\306\275\006I\364=G\243\006\276*\034\017=Wj}\275\352K\177\275(\274\243=\241;\232\274s\372_<m\201\323=`1\001>\212K\257=\227\360\265\275 \333\264\275\345\013\266\275\004\010\375\275\224\376\'\275c\210F\276V\364C\275\263iA>-\036\320\275i\376\010\276\240\304H\274\"\320\r=Y^\r=\022\027\'>\227iH>\243Q\302\275*\235|\275\024u\271=&3\010\274\004CU\275\373j`=\n\304[=\320>y\276\305\215\020\276\022S!<\256\010\355\274O*\027\276W\203\r>!l\317\274s\215\275\271sg\263=uF\221=\304\250*>\322\304\246=Tj\021>3\030\276\274\236D\251\274g\330\345=q\217\007>.\354d\276\207v\023=\337\351f\275>\023\027>a\326\244\275\352O\237=b\336&=u\n1\276\345\254\243\275\010\242\014\275\020\035\371\275\256s\203=\372\377.>\214\313\017=\323\236\301<\n\323\270=\356w\243=\007,\261=rp\347\274\353\033!\275c\233\201\273\354\227\r\275\326f\240=\310\230\024\276z\300\270\275\336\374\236=\250B\005\275|\263\000>\202]\217\275\254\372u\276\246\221]\274\306\'\261\273\246Iw>\213r\331\275\217\t\024\276\213\007f\274\256QW\276P6\330\275\204\200\264\275\345\314\007\275\274\246\346\274${\203=\327\202\347\275\225\370\301<\264\216\320\275\021Q\223<G\211F\275T\324s\276P\"@\275\245?\023\275\207\206\000\275A\270f=\204\006\n=\237\253\227;\252\352\375=Ae\357\275\230b\320<\322\250\004\275\350\261\000\276\356#\215<[Be\275\270Hi=\346\264\206\275\030E\317\273\356\371\247=\373\201\337;\315\226\302<!\357\313\275?\273\235=\345\002u\275\252\242H\275\207r\000>\352\231\370\272E\373\201<O\346\005>\352\2712\275F\203*\276\333s%\276\340\243u<\267\314\312\275\273\302B<\370\317\024\2768\375\320\275\313\364\322=\251\355#\274Ub><\244\335\245<\212\263\016\276F\246)\273rL\373\275\322\200\237\273x\261\002=\337p\343\274\265\360\206\274\317P&>\307If\275\231\347\016\275\272l\036\275f4_\275i\036\377\274\014\302\243\274X\202\032\272\252YG>\267\367\321\274\376\374D=\2232\326<\245Q\345\274Z\2733>\242\023\256\274\204^k\276\303\001\347=\031<\374\275x\275$\271\203\267\202\275.\363\232=\322\017\344\275\305\014%\276\257\313\337\271\302g\351<\272\0306\276\"\212\025\274\256f\374<\336\343>=l\273\357\2755\035\272\275\201\311\324\275uH\303\274\200\006\222=\275\244\304\275\364\201\347<\226\027\337=\312\251\036\2767\363\220=\034Y8>5w\214\275I\351\377:}\262&\274i=.<QW1\276\214\364c\274\254L\370\274\234\323\301=\0205?\274G\000h>)\343]\276\264\200o\275?\205\200=\211\206\325=PA\n>\024\331\350;\236>n<\203\235n\275\371.\233<\326\255S>,)6>:\316\315;\245z\010>n\016\312=@:\003<34V=\300\322\234;~\006~\275\340\031S;\220\3204\275\316*\243=HE\213<\256~\204=\277|g\275Mb\330=~\250\230\275RN\277<\005\274\302\275\262\274\246\274\371U$<wT\252=\356\362U>\361=\244\276j\275\313\274\266sk=\022\'\225=4\345\274=\240\355\031\275(\260\004>\302\225\236\275\037\217\016\275.\215\305=\350\201\375\275E\212\010<zX#>\017:\345=\034I\357\274\220\274\223=\021\343=\276\322=\375\275E\031\226=#\252\222=\354:\213\275\3564D=bB\325\275@\343\'\276\034\234\225\275X\024\305\275\225\021\272\275C\014P\275\255b\274<\021\265c\274\272gz\274X\332\276<\253\244\010\273\221Z?\275(\200\244\275b\260:>\305\334Z<\263>\023>\306(\225=\237!(\276tX4=`\342\340<\370\270\003\276iN\336\275N\246\001>\303\'\225=\304k\007\276TU\235=\027s\270\274\3032\035=\274y(=X\250\030=Y\300\230;D\013a\275dA\270\275\006\010\r=\250\302\007>\031\365\r\276\014\267\177=\344a%=\273\354\244\273\222\003`\275[l\306\273nVv;}\265\227\275\312\367\205=\2023\005\275\254&\374=\2451\372<-/\007\275\210\316A\276\245$#\276\035\214\207=\250\341F\276\233\305\257=~\033\261=\307\020\350<\200)\360=\252\020\257\275\242\033\267=:\263\344=\017,\236=\347\003\346=\362\021@\276\240\r\326\275\342NU>\215\244\345;)\3370\275\354j\217\275\330\246\333<9\314\227=/\204\022\276\035\230F\276\2351t\275g\345\225;\021\024\n\2753Pk\275\265\334\265\275\033\254\200=Wk\000\275)=\t\276b\021Z=\256\206\300=\013\214P\274\241\306\345=M\216\366=\301m\020>f\256\266=?\371\r\275\325v\204\275\276\275\265\275S\334\344=\024\024\t\276\314\332~8\377\306)\276\371\371\007<#3\241\275:\347\201\274\340\354\247\275\314H\\<9#Y=\322\236\201\275\277\363\375\275\276%\265\275\353\363\207\2751\2214\276\254\240!=\031\247\023=}:\017>H\006\214<z\360~=\221\274\321=f\353\310=v.f\275\"\334\222=5N\003\276f\036\225<0y-\276I\231\027\275\343\036\315\274\274\264\252=\266\270.\275\006\226\231\275\324\212\006\276 \244X=\334kg=1\274\370\275\362*(<E\244N\275\337\036\231\275\314\336\2529_\005V=<Q\020\275xp2\276l%\361<\014\206\200=\201\227\255\275:\260!\274K\262&>\333\232\270<8\022\262\275\324\337\345\274\260~\265\275\362\201\331\274\232i\206=+\243->\313,\013<\005:S\276\021ek=\252\3524\273@\254\245=\355\222\203;\206\264\001>\347\244\275\275k\226\334\273\246W\313\275z\035\373\275\002\237\233\274*\244m\275g|\231\274rm\310=>=c=\263\\N\276\306v[>\335<\t>\221\377P=_\363%\276\r\314\204\275(\351\230\275\2631N>\366\362L=\345k\234=w%\007=8pS\274R\361\037\275o\177\341=\230\341\023>\036u)\274d\0049\274\177\241}\275_\336\334\275\357\250u=K{\324<xo\331=yu\034>\332\303\255<\305\010n\275\334\252\025<\330\323]\274\030\007\323\275-m\316\275\037;E=F{\206\275\032\\\006>\272\266\270\274\356\340\251<.\333\305;\234c\007=\230`\225>L\007\260\273\311I\000<Q\346\r>\033e\310=\324\373^\272P\363\204<\255T\001=DZ\205=T\323I>\241\204\351\275\3771\305\275\2236!\276\363\020\327\274?\355r<\274\203\265\275`)\250\273\027\320\330\275\244\274\377\275\350~C\275p\177O\275\\hj\275\360.,>\017\2168=\267%E: O\322=\242AI\274\255B\022>i\313\204\274\220A\336\274\254d\311=\242\311|<\007\362\256\275Im\316\275\227\237r\275.\335e>\213;b=\324hW=\324%t=\302KP\276\256\256C\274\223W\273<\221<\224=\027\003\037\275:\212n\272%\354.>3\3518\275\334\225*\275\351G\204=?f;>\250D\210=k\316\221>d\233\036>z\263\306\274\311w\305\275\260S\033>\307\273\242\274\254\260d\272\253\241<\275\271:R\275}=n=\366\261\361\275\315-\304=\367\223\\={\255\022\275=J\031=\355&X==\326\304=\005\006\017\275\0046{<\037)Y\275Rc\330\275\231\343A\276\336\346R<Pc\351<j\216}=\224\361+=\300\305\347=\265*z\275\233g\022;\241Gl<\264\217G>\267\271}\274\235\203\273\275->\325\275l\027\374=l\334^=\204\305\010\2764\340\360\2757\255\221\275\275\320\270=\233\024;9g\001\003>L\002$=1\237$>\307f\202\273\212\337\214\274.\263$\274\303\020\010\276\263\331\347=\203?\022>\274]\276\275jm\372=\236c\005>\321\366\231=/)\n\273\237\354\221=\336,\365;Kk\216=f\313\017\275%<Y>\315\022\322=)\372\363=\324F\027>\233\267\301=\2550\212=\260\016\371<"
      }
    }
  }
}
node {
  name: "sequential/lstm_1/Read_1/ReadVariableOp"
  op: "Identity"
  input: "sequential/lstm_1/Read_1/ReadVariableOp/resource"
  attr {
    key: "T"
    value {
      type: DT_FLOAT
    }
  }
}
node {
  name: "sequential/lstm_1/Read/ReadVariableOp/resource"
  op: "Const"
  attr {
    key: "dtype"
    value {
      type: DT_FLOAT
    }
  }
  attr {
    key: "value"
    value {
      tensor {
        dtype: DT_FLOAT
        tensor_shape {
          dim {
            size: 9
          }
          dim {
            size: 128
          }
        }
        tensor_content: "\341\177U\276\020\2366\274\354\256->[~(=\314\232\353=\366\240\255:\367G\'>\225\231c\275w\001\212=2O{\276\363\0351\276\330\236l=\336\231\027=J&\034>?\326\215\276\364Y\027\275\260\016\353=\214\363\363<\361\\\014>\201|(\276\265\261\013\274\347\025Q\275\344\\\365=\030\332+>\214#\017>\300\354\016\276\316\300\032\276[\004\246\274,\215\267=\370\335B=\\4F=\307=\243=\253\207\023=\261$\010>1\201n=&6\026\274D,\361\275\020\3542>\221\265\000>\177j\202=JV/\276\023/(\276\257\316\250=5\336\010\276n*\337=l\233\017>m\332>\276\201\355d\276\014\356\254=\256\365\350\274\262g\242=\310\333\346=\263\301\321<\322J\351\273\270\260\017<\200W\237\275\341\370\t\275\313\3364\276\007Q\216\275J\246\"=s\3019\276\261\253*\276\352\264+>\224\312\005\275\013l\332\273\313\0220\276\n7\207\275 \263\212=\227\230\020=\360x\334=jt(;\205G5={\217v=\375\343;>\025\222\341=\352\366\220=\245\375\354=\005C\232=\035\202\332\275\025K\311=\236\0161>\302\241T=\027P\330\275\200\220?=\031\217=>\377r#<C\236\313=\375\374\303\275^\177)\275\'o\256=\231\341\243\274X\304\000\276\357\035\346\275?\376\002<\031x\370=!aL=\252\322\233=)\004B>\313\375\336<|\361\207\274f 1=\251\323\355=9]\222\275JP7\276\026\356\004\276\202f\016>MtG>\364\'\031\276z\205X\276\004+.>L\355\365\274\020Z{\275\331\236D\276\321\233<>>jW\276d\037@>\014V\374\275\220F\354\275\3623\032>\267\013O>&\353\367={2\007>\261\375T=\006$\010\276\376\250\240\275\3422K>\300\327\022>\206\315y\274GBm<6\227\217\274\251%n=\021k/>\313\256?\276\'j\024>\374t\355=\322\352\355\274\344\0003\276Vo\220=\304\002\264<\263n0>^\026J>Q[8\276L\2443\275\257\3202\276\307\276\213\275=\367\277<|\001?>\211~y\272@0`>e\277\234<\205B\304\275\260)S>\215\255\360\275\027\260I>\207\363\010=a\005\021>=\337.=\211L\363=\n\037\342\274\342\247\266=G\207\221=\0179\302\275-i\261=@gx;\201\251\033\275+\244G>\261X\326=\036\2459>f\365\255\275\023B\000>\313\271\255\275\317\362\307\275C*\277=2*h\275\237m@=\003c\t\276\0245\330\275Wr\005\273\304\321\252\275\351W3\276\021\241R>n\245G>)n\367=\354pw=\321\264\\=BE\320<\\\243k=\376\254g=d\271 =\026N\267\275s\024m>\220o\250\275\224\304\376\275\302\207\222<\320\201\306<-\343@>\3763u=\253\234\304<\367\230\022=\235\343\352<|\364y=\324\226\027\276\325\027U=\005D\305=\337\2662>>dc=\205\346\337=\"\225\260\275J\323\224\275rL\313=\373\304\226=\\5\313=\010\2709<\360`|\273S\324\322\274\202\277\343=U\211`9\003\262\t>`\331\026\276\020J;>[6\r\275\345\004_>Y\036O>M\347\017=(\277\305\275+\":\276\307\306/\276\306\2746\275\253j\316\275\340=\265\275\356\023-\276\374U\002\276>K\003\276(\205w\275\347g\026\276\322\326\020\276\257\242\207<5\331Y\276\243\223\247\275:U\334\275 \025\001\276\214\351\275={\316\252<\220\265\036;\360\334\000>\tm\'>s\006C\2767\305_=~\330,\276\267\310\267\275\324Q9\276K\331\356\275\352\306\363=il\300=>Hp=e\td\276t7\376=\374}z\275uX\021\276z\330\'\275\014h(\275j\336\373\275\0246t=#g\240=`\307\341\275O\024\225\275\014#e>\030\227h>\207vR\276#6\331\274\212\377\316\275O\200\272\275\331\250\251<\352\025=\275\231\304\271=\223\343\343=\033\243\354=\277\357\376=/\321$;M3\007=\264\032\335\275t\253\010\276]\2052\276\301\374U\276\341\327\320=\221\225[\276S\312\022\276\345\325\"\276\004\310\321=7\240\325<A]\335=\255\262\336\275\033T\226=!\222T>\t\327\023\276\003y\235\275\232r\031>\376\030\206=\n\033\307<ES\263<F\212S\274\001\237\017>\"\211\320\274b\266\334<2\352K\276\241x\232=${+\276\364\206f\275\000rQ\275\242\341M\276\001\204V\275&\353\016\276L\016,\276\014p5\276p\212\371\272\233\203\373\275\303\302C>U\367z=\212\203<>\352\221X>\315\271\261=\\\n\177>e\203K\274\337\336\224\275\356\016v\275\234O\236=f\204s>\213Z[\275\245p\007\275a\350\277\275\003\270\331=\252\2031>X\006\214\275\304Rj\276\307U\023>\257\325v>(\233+=)\233\\\276\337\026\\\276#\005\374\275z\352B\276&\201\003>\221\030\343=o\315P=\302D\034>\3319I>\032\360z> \370\264\274km\225\275X\374\334\275q@t;3Lq=\2261i\275\245:\036>\371h\363=\037=\037\2760\3624>\226\276\'\276\2615g=W5\363=Z\364\277\275P\030\322=\022\324Q>\014oK=\227\326\307=0\205\014\276\320x}=\007#3>J\237\037\275\313\010\025>A~\253=\226\031&>\362b.\276\2441\271\275\022\320\301=\317\233]>\2573\336\275\353g\372=\265\270\014>\206\"\305\275\013M\331\275\236#\005>\354\3347\276\205\254\000\276\235\354N\276N\350,\276\215\371H\276y\200\267<V\217\340\275\2222\037>\201\010Z>\212\326~<\361\017\254<fz\360\275|\000\321=q\223\217\275\376/A\274\247@f=\247\033o=\314v\354=!\313\250=\331I\">\25093\275-\211\346=\317\3432>\333v_\276\027\377\351=\351\321#\276\r\207\372=t\242\034>\300\327\316=\313\3500\275q\201\357<M\203\336\275\247\363\334\275\223.\010>\324\314\034\275c(?>\315v^=\207f\365=\217u\370\275{\205\351=\016P2>Bz\n>J\276\223\275\250\177\253=4(\n\276\375\210z\276\323\327\330\275\005\346\030\276?\227\217\276N\025\371=xGH>6\007$>D\215\034\275\303\301\016=\344\257\216=\311>U\275]\257\025=\233F\334\275\306\020\377=,\252\371\274K\377K>\213\322\n\275\334P\253;\307\365N<\337\363\010>\370\245\2058H\251\253=o\251\265\275[\034?\275D\277\031>E\023\"\275\217\303\231\275\322KT>\317\306l=\"\\!>)\202\024>\221\222\035>\307\026V\275\377\254\350\275*\232\231\2748[[\276lZ\260\275e\357E\276\001\332V>J\024\215\275\237\3667=\276|A\275\3204\202<\336:s;\266c1\276\352\227&>\313\203\222=\243\337\261=\2245\230=\347\n7<\017\346\031\276\027\313\026\2764=<\275ad\211\275S3\376\275\310g\344\275\222\257\222<T\"\375\275P\305\260=\\\240\274=>\3762\276\306\330X\276\260\006U>\256\370;>\340n\204\276\030\317\354=\242\252\262\275\254\357K\276\337\276\353\275\267\371\032\276\3656h=\021\363\302=c-\017>Va\004>\312\356\357=g\347{\275W9\270=\031J\r\276L\002\351=\177\327\214=AB*\276\022\210\017\276m\352\247\275NY\330\275&\214\002>\000\350>\275\360\3653>D\024\372=P\2450>Aaa\276\034_\022<\277\215\216\275\246ld>\312\006\270=J\254\022>\314\223\254<\274\202+=U\213M\275\367l1=\206\336\373=\272\375\373\275\377\340=\275\025\t\262\275 #\377=\366X\232\275\272U\252\275\343\304)\27674y>\004\224M\275@\244\310\275c<\n>\312y\025>\237\305\325\275y)\373=\205\212\217=cK`=d\313W>\2608\315<\215\256\315<\014\257W\276\266\373\207\275\326\311\335=\304\240.\275\252\277\233\275\251\331\210=ikL\276\025\347\235\275\371f)=\366\372\232>\301uv=\365\257,>\251K;\276 \230\241\2753z\\\276\217\272*>\271\235]>\245q0=\275\226@<\003\346Y\276\306[\311\275\365\021\372\275\314\001\\\275\313tm\276\021\307 \276~\177\034\275\3460!>Ws\215</5\337=YI\356=\253\371\037\276\031N\360=I)k>\226=\217>\362A5\276\301:0\275\017\212\374\274\312\301q>\307=&>\237oV\275\001\234u>-\323c>A\311\210>8\257\355=~Qr\276o\022\230\274\014\375\247\275/b\352=\300\2469\276!e\030\276\013\215q=h\250,\275\273\302\231=R\321\016>\237q \276\336\360~\275\274\240\217\2769C9\276\211\257&\276\316\332\316=A0\020>}\332l>\025\'\322=\304\254.=\376M\037>\213\273h>z\251O\274\025\374\222\275!Z\036\275sCL>\236\227P\276\374\332\022=I:\r\276G\350d\275p\275\235\274\305\355*>\020Y\253\275K\336\325=\220\032\332\275c\262~>\216\344U\275G\335)\276\264\213\354\275\336\3045>.\240\216\275\013\217\272\275\245.\331\275\212\247\372\275\362\214y\275\336\231#>\245#\212=\nP\376<E\250\206=\200\317\372\272R\250R>b\341}>\371\232\007\276\321\0363\276p|\344=;\276\370=\277[\230\274\344\320[\276\200W\250=\007\241\200=v\002J>\177Y6\275\334\374\206\274z!\204\275\025\244M>\362r\201=\205\346\316\275\242\231M\275\247[\247\274\300\307\'>\264\226!\276\336Q9\276j\202k>r+\023\273V\361Y\273\246[\223<\273\364\342\275\242\223\022=\032/\302=`{o\273\201Lp\276\022\207\340\272)5\001\275\201q\212\275?\213\037\276\363A\224\276\2137<\275\007\317\377=E\263\016=\320R\325<\2432A\275#\263\371\275\277\220\200\2753\272)>\320/i\276\251\266I>\303\036\244\274\272:?\275\312\264\245\275j\237\234>\302\314\345\275\221\331\r=\373w\334=?\3619\276+\305D\275/\373\017>\330\005S>/1\264=y1\202>\226\377,=z,\256\275\321\002\035<\321\000\202\275\032\307\020\276+\250\004\276\363\326,>\214o^\275w\007M\2765:\217\276K\304\251\276\365P\"\276\215\370<\276\023\207*=\377X:\276\272\305t>\213\201p>\310k.\275\002^\225=\336|n\274\214\037\274;O!\266=w\273$>r\246\n>\246\000x\275\r\326,\276\253kj>\000\2430\276\312s\016> C%\276I\252\274=\\\261n>\350?9\2767M\312=E\351\315\274\024\275j\275f\233\267\275aB\t>\326\n\301\275\326\351!\276\304\317\224=G5$>C\004Q<I\220;\275M(3\276\244U\275\274\360\366\227<hr8\276\326\226D\276\027\276Y\276,\354/\276\374\005\230\276\265\351\\>\253K\217=\277%\244=\313\244D>,\317\t>0\327\361<Wt\201\276\273\245P>\321\243C>?\261\336\275{w\216>\304\367\200>\005\004g>`q\246<(\272\350\274\375\375\003\276(\202.=\002\255e\276\322\317M\275\022\251\331=\264R\206\275~A\257\274[}\t>\212I\217\275\357\370\007>\327\336=\274ph\021\276\272f\036\276\322d\314=ge\300=\0373e\275\256\233\206\274,O\016\275^\014<\275\365Jj>i\372S>\017\033\002\276\245\371\204>(:\006>\204v#=s\356\016\275\313\261\320=v\331\222>q\030U>\205\230\350\275yr\257=}\356j><\026\367;Z\\O\272v%\245={\202\207>\253\230\225\276L3\260=\320\217\022>\230\023\265=\265\200=>\024_\373\275MT\r\276\003\375C>\365\325\">\"\033\252=\022\325\215\275C\033D>\240\036\001>\034\203b\276\001\242\360\274\232\017\327=T\177*\276Kt\016\275\304!\320\274\253\3709\275S5Z>v:\201\275\237tX>\341\221\004=\017\362\026\276\017\027X\275\275.\362=f!\276\275\357\262r>\354\276\230\276LZ\222\275\"\020\245\275m\002\330\275b\221=\276\221O\241\275\\\241z\276\340b\035\276\302\254\373\275\351\233\206;NF\203\276\262hy>\002\352c>\307\344\267=+\205\025\276\237O\205=\362\322\035\276N\305\003\276P\004!\275\215\262w\276\332\366e=\027\n+>\221\004\302\275\266%\023<\013\355\273\275\327 \310\275U!E=>zo=\373\256:\275\305\210\305=1d\263=o\022\035\273^\353\001>\236{\315\275\t\332\224>o!\332<\031LF>\225`<>\334k\264<\273Q\251=\'\225\351=\217)\241=\367,\034\274g\247\010\275\n\243\213<\246>\201\276;\217\314=\00429\276\010\230\"<\231\262\022>\246\320\245>\337T\021=\312\210\256\275\033\234A\276)<x=\347\2523\275\306U\036\2756x/>tta>\311\350\342\275WQ<>\213Gm>\31756>m\022\230=\220\313m=\270M\001\2760\030j\2769B\364\275Zx.=~:m=,m\n>\376]\217\275>\316\352=\333\2557>N\005\323\275R@\003\276{j\242=v\214\233<\337\321\214=d\256\257\273V\262\335<iv\030>\351\236\000>=1\323\274\304\373\245\274*\232H\276\351\260&=A\010\366\275[\'\366=_,\321\274NT$\276\032\204\205\276WM\251\275\005\247\365\275\252l\203>\"\335\036\276\3638\211\275\205\214C>cT\001<0\031O=\243\315:<\314\267W\275^pR=\220\371.>J\3119\276\376\250\030>\213\262\260=\276^\233<\347\2617\276\3046\r\276<G\266=\211\005\273=2\023\030>\234\360Z=\253\304\211\276\024^\223;\\\036\376<\223\343\352\275\342\032\355=\003\310Y\276e{}\275T!\213\276\270\206R\275\331Q\262\274\270,\373\275\\\255\001\276PV\205>\205\006\002\275Y\344\r>mF\177>\265A\320=\024\223\212>\'6O\275\231||=Hd\025=BKc\276\205\343\212\276\374\210\324=.Q\262\275\365\001 \275\365\275\211\274\036\376\203\276\311Wt\275u\334\274\276o\251K\276t\005p=\t\267M=\352\205X:\277\335\032>\025\362y=\336\331@\275<-\275>\251.r\275=Kt\276\276*O\275\0332?\276P\352\020>k\353 \275\372\260W>\343H\035>i\233\207>\373\340[>K\r\023=\3520\332\274\203b\017\274|S-\276\230\352B\274\337\204\225<3\005!>\314\272^=ad2\276\220g\231<\334\225s\276\257q*>\006\361@> \351\217\275~\257\030\276\360\302\264\270\253\303\"\276\036\224S=\224\221\300>3DD>$\025\241<\334\301\234\276`\\n\275\021\355\230\275\022\022C\275\3344f\276\366\324Y\276\361\273\325=\234A\023>\275R >\335(5\276_\221\204\276Q\211\016\275n\247%>\274#]=^\245(>\300%\315\275\360I\215\275\377\374b=U\345\255\273a\357\363\275\270\335 \276E\177{=\271\231~\274\006\372\364<\323\311\205\275[y\361=P\\\223=\213\234\330\275\310\266i>AD\234\274\245\r\032\276:\3425>\223\230\225\276_\341p=p\035\205<\030k\342=y\273\r>C\261\320\274ck@> \337\027>\203\361a>\275\354\252\275];5>\266~\377\2754\315\321\275\030\037X\276\325\244\251\275\027F\027\275\351\263Q=b\317\010=\245I\211\275\335Cd>\205\037\013\276\353\014&\276\276\361W\274,;\034;\320T\344<\312\271(\276\254)7\276\376\002\353=F\014\033\276\323\2562>\231\375(\274\346\310)\275\010\0273\276V\363\312\275\3603\327;\2129\005\275`F\037\276\266\316\203=A\"?\276\177\274\324<\262\031\304\275\362\216\013>\260<\211>\347\201a>\210\271\265\2759\267\017=\204\353\030\276\306\254\007>i\250\246\275\360\310D\276\275c\277=<\226\000\276\210\021R>\314\274\215\275\227^\313=$mw\274\254\377\227\275#\201\231\274\201S\027\276\3675\256\274Za\312=\277\272\247\275|\363\264\274\026\250\335<\267\253d>U*_\276\257\215\203=\332#T=\356<,\274\253\014\235\275\004)l>\202J\311\275n\372D\276-\303l<\n\352\263=\004\267\304<7\206_=\272q\313\275-\270\'\276\364\3221>\323Z\013<\274\243\034=\362\236\n>u\376\257=&j\306\275\227L\033\276r\276\001\275K\001\252=\263\210\367\275Z\211\252\275\344O\357\274\356M\036>\025\230\252=\217\344\026>8\035\356\275\360aL\2751\343X<\375\370\231=\274\234\340=\342\205\250=j\210\177\275\311\377U\275q\327\374\275\022\341\017>6\010\343\275\n\027\311\274"
      }
    }
  }
}
node {
  name: "sequential/lstm_1/Read/ReadVariableOp"
  op: "Identity"
  input: "sequential/lstm_1/Read/ReadVariableOp/resource"
  attr {
    key: "T"
    value {
      type: DT_FLOAT
    }
  }
}
node {
  name: "Func/sequential/lstm_1/PartitionedCall/while/cond/_11/input_control_node/_71"
  op: "NoOp"
  input: "^sequential/lstm_1/PartitionedCall/while/merge/_24"
}
node {
  name: "Func/sequential/lstm_1/PartitionedCall/while/cond/_11/input/_74"
  op: "Identity"
  input: "sequential/lstm_1/PartitionedCall/while/merge/_26"
  input: "^Func/sequential/lstm_1/PartitionedCall/while/cond/_11/input_control_node/_71"
  attr {
    key: "T"
    value {
      type: DT_INT32
    }
  }
}
node {
  name: "Func/sequential/lstm_1/PartitionedCall/while/cond/_11/input/_78"
  op: "Identity"
  input: "sequential/lstm_1/PartitionedCall/while/merge/_30"
  input: "^Func/sequential/lstm_1/PartitionedCall/while/cond/_11/input_control_node/_71"
  attr {
    key: "T"
    value {
      type: DT_INT32
    }
  }
}
node {
  name: "sequential/lstm_1/PartitionedCall/while/cond/_11/while/Less"
  op: "Less"
  input: "Func/sequential/lstm_1/PartitionedCall/while/cond/_11/input/_74"
  input: "Func/sequential/lstm_1/PartitionedCall/while/cond/_11/input/_78"
  attr {
    key: "T"
    value {
      type: DT_INT32
    }
  }
}
node {
  name: "sequential/lstm_1/PartitionedCall/while/cond/_11/while/Identity"
  op: "Identity"
  input: "sequential/lstm_1/PartitionedCall/while/cond/_11/while/Less"
  attr {
    key: "T"
    value {
      type: DT_BOOL
    }
  }
}
node {
  name: "Func/sequential/lstm_1/PartitionedCall/while/cond/_11/output/_83"
  op: "Identity"
  input: "sequential/lstm_1/PartitionedCall/while/cond/_11/while/Identity"
  attr {
    key: "T"
    value {
      type: DT_BOOL
    }
  }
}
node {
  name: "sequential/lstm_1/PartitionedCall/while/LoopCond/_35"
  op: "LoopCond"
  input: "Func/sequential/lstm_1/PartitionedCall/while/cond/_11/output/_83"
}
node {
  name: "sequential/lstm_1/PartitionedCall/while/body/_12/while/split/split_dim"
  op: "Const"
  input: "^Func/sequential/lstm_1/PartitionedCall/while/body/_12/input_control_node/_84"
  attr {
    key: "dtype"
    value {
      type: DT_INT32
    }
  }
  attr {
    key: "value"
    value {
      tensor {
        dtype: DT_INT32
        tensor_shape {
        }
        int_val: 1
      }
    }
  }
}
node {
  name: "sequential/lstm_1/PartitionedCall/while/body/_12/while/TensorArrayV2Read/TensorListGetItem/element_shape"
  op: "Const"
  input: "^Func/sequential/lstm_1/PartitionedCall/while/body/_12/input_control_node/_84"
  attr {
    key: "dtype"
    value {
      type: DT_INT32
    }
  }
  attr {
    key: "value"
    value {
      tensor {
        dtype: DT_INT32
        tensor_shape {
          dim {
            size: 2
          }
        }
        tensor_content: "\377\377\377\377\t\000\000\000"
      }
    }
  }
}
node {
  name: "sequential/lstm_1/PartitionedCall/while/body/_12/while/TensorArrayV2Read/TensorListGetItem"
  op: "TensorListGetItem"
  input: "Func/sequential/lstm_1/PartitionedCall/while/body/_12/input/_92"
  input: "Func/sequential/lstm_1/PartitionedCall/while/body/_12/input/_87"
  input: "sequential/lstm_1/PartitionedCall/while/body/_12/while/TensorArrayV2Read/TensorListGetItem/element_shape"
  attr {
    key: "element_dtype"
    value {
      type: DT_FLOAT
    }
  }
}
node {
  name: "sequential/lstm_1/PartitionedCall/while/body/_12/while/MatMul"
  op: "MatMul"
  input: "sequential/lstm_1/PartitionedCall/while/body/_12/while/TensorArrayV2Read/TensorListGetItem"
  input: "Func/sequential/lstm_1/PartitionedCall/while/body/_12/input/_93"
  attr {
    key: "T"
    value {
      type: DT_FLOAT
    }
  }
  attr {
    key: "transpose_a"
    value {
      b: false
    }
  }
  attr {
    key: "transpose_b"
    value {
      b: false
    }
  }
}
node {
  name: "sequential/lstm_1/Shape"
  op: "Shape"
  input: "x"
  attr {
    key: "T"
    value {
      type: DT_FLOAT
    }
  }
  attr {
    key: "out_type"
    value {
      type: DT_INT32
    }
  }
}
node {
  name: "sequential/lstm_1/strided_slice/stack"
  op: "Const"
  attr {
    key: "dtype"
    value {
      type: DT_INT32
    }
  }
  attr {
    key: "value"
    value {
      tensor {
        dtype: DT_INT32
        tensor_shape {
          dim {
            size: 1
          }
        }
        int_val: 0
      }
    }
  }
}
node {
  name: "sequential/lstm_1/strided_slice/stack_1"
  op: "Const"
  attr {
    key: "dtype"
    value {
      type: DT_INT32
    }
  }
  attr {
    key: "value"
    value {
      tensor {
        dtype: DT_INT32
        tensor_shape {
          dim {
            size: 1
          }
        }
        int_val: 1
      }
    }
  }
}
node {
  name: "sequential/lstm_1/strided_slice/stack_2"
  op: "Const"
  attr {
    key: "dtype"
    value {
      type: DT_INT32
    }
  }
  attr {
    key: "value"
    value {
      tensor {
        dtype: DT_INT32
        tensor_shape {
          dim {
            size: 1
          }
        }
        int_val: 1
      }
    }
  }
}
node {
  name: "sequential/lstm_1/strided_slice"
  op: "StridedSlice"
  input: "sequential/lstm_1/Shape"
  input: "sequential/lstm_1/strided_slice/stack"
  input: "sequential/lstm_1/strided_slice/stack_1"
  input: "sequential/lstm_1/strided_slice/stack_2"
  attr {
    key: "Index"
    value {
      type: DT_INT32
    }
  }
  attr {
    key: "T"
    value {
      type: DT_INT32
    }
  }
  attr {
    key: "begin_mask"
    value {
      i: 0
    }
  }
  attr {
    key: "ellipsis_mask"
    value {
      i: 0
    }
  }
  attr {
    key: "end_mask"
    value {
      i: 0
    }
  }
  attr {
    key: "new_axis_mask"
    value {
      i: 0
    }
  }
  attr {
    key: "shrink_axis_mask"
    value {
      i: 1
    }
  }
}
node {
  name: "sequential/lstm_1/zeros/packed/1"
  op: "Const"
  attr {
    key: "dtype"
    value {
      type: DT_INT32
    }
  }
  attr {
    key: "value"
    value {
      tensor {
        dtype: DT_INT32
        tensor_shape {
        }
        int_val: 32
      }
    }
  }
}
node {
  name: "sequential/lstm_1/zeros/packed"
  op: "Pack"
  input: "sequential/lstm_1/strided_slice"
  input: "sequential/lstm_1/zeros/packed/1"
  attr {
    key: "N"
    value {
      i: 2
    }
  }
  attr {
    key: "T"
    value {
      type: DT_INT32
    }
  }
  attr {
    key: "axis"
    value {
      i: 0
    }
  }
}
node {
  name: "sequential/lstm_1/zeros/Const"
  op: "Const"
  attr {
    key: "dtype"
    value {
      type: DT_FLOAT
    }
  }
  attr {
    key: "value"
    value {
      tensor {
        dtype: DT_FLOAT
        tensor_shape {
        }
        float_val: 0.0
      }
    }
  }
}
node {
  name: "sequential/lstm_1/zeros"
  op: "Fill"
  input: "sequential/lstm_1/zeros/packed"
  input: "sequential/lstm_1/zeros/Const"
  attr {
    key: "T"
    value {
      type: DT_FLOAT
    }
  }
  attr {
    key: "index_type"
    value {
      type: DT_INT32
    }
  }
}
node {
  name: "Func/sequential/lstm_1/PartitionedCall/input/_1"
  op: "Identity"
  input: "sequential/lstm_1/zeros"
  attr {
    key: "T"
    value {
      type: DT_FLOAT
    }
  }
}
node {
  name: "sequential/lstm_1/PartitionedCall/while/enter/_17"
  op: "Enter"
  input: "Func/sequential/lstm_1/PartitionedCall/input/_1"
  attr {
    key: "T"
    value {
      type: DT_FLOAT
    }
  }
  attr {
    key: "frame_name"
    value {
      s: "sequential/lstm_1/PartitionedCall/while"
    }
  }
  attr {
    key: "is_constant"
    value {
      b: false
    }
  }
  attr {
    key: "parallel_iterations"
    value {
      i: 32
    }
  }
}
node {
  name: "unused_control_flow_input_17"
  op: "Placeholder"
  attr {
    key: "dtype"
    value {
      type: DT_FLOAT
    }
  }
  attr {
    key: "shape"
    value {
      shape {
        unknown_rank: true
      }
    }
  }
}
node {
  name: "sequential/lstm_1/PartitionedCall/while/body/_12/while/Identity_4"
  op: "Identity"
  input: "sequential/lstm_1/PartitionedCall/while/body/_12/while/mul_2"
  attr {
    key: "T"
    value {
      type: DT_FLOAT
    }
  }
}
node {
  name: "Func/sequential/lstm_1/PartitionedCall/while/body/_12/output/_100"
  op: "Identity"
  input: "sequential/lstm_1/PartitionedCall/while/body/_12/while/Identity_4"
  attr {
    key: "T"
    value {
      type: DT_FLOAT
    }
  }
}
node {
  name: "sequential/lstm_1/PartitionedCall/while/next_iteration/_64"
  op: "NextIteration"
  input: "Func/sequential/lstm_1/PartitionedCall/while/body/_12/output/_100"
  input: "^Func/sequential/lstm_1/PartitionedCall/while/body/_12/output_control_node/_107"
  attr {
    key: "T"
    value {
      type: DT_FLOAT
    }
  }
}
node {
  name: "sequential/lstm_1/PartitionedCall/while/merge/_28"
  op: "Merge"
  input: "sequential/lstm_1/PartitionedCall/while/enter/_17"
  input: "sequential/lstm_1/PartitionedCall/while/next_iteration/_64"
  attr {
    key: "N"
    value {
      i: 2
    }
  }
  attr {
    key: "T"
    value {
      type: DT_FLOAT
    }
  }
}
node {
  name: "sequential/lstm_1/PartitionedCall/while/Func/sequential/lstm_1/PartitionedCall/input/_1_switch/_40"
  op: "Switch"
  input: "sequential/lstm_1/PartitionedCall/while/merge/_28"
  input: "sequential/lstm_1/PartitionedCall/while/LoopCond/_35"
  attr {
    key: "T"
    value {
      type: DT_FLOAT
    }
  }
}
node {
  name: "Func/sequential/lstm_1/PartitionedCall/while/body/_12/input/_89"
  op: "Identity"
  input: "sequential/lstm_1/PartitionedCall/while/Func/sequential/lstm_1/PartitionedCall/input/_1_switch/_40:1"
  input: "^Func/sequential/lstm_1/PartitionedCall/while/body/_12/input_control_node/_84"
  attr {
    key: "T"
    value {
      type: DT_FLOAT
    }
  }
}
node {
  name: "sequential/lstm_1/PartitionedCall/while/body/_12/while/MatMul_1"
  op: "MatMul"
  input: "Func/sequential/lstm_1/PartitionedCall/while/body/_12/input/_89"
  input: "Func/sequential/lstm_1/PartitionedCall/while/body/_12/input/_94"
  attr {
    key: "T"
    value {
      type: DT_FLOAT
    }
  }
  attr {
    key: "transpose_a"
    value {
      b: false
    }
  }
  attr {
    key: "transpose_b"
    value {
      b: false
    }
  }
}
node {
  name: "sequential/lstm_1/PartitionedCall/while/body/_12/while/add"
  op: "AddV2"
  input: "sequential/lstm_1/PartitionedCall/while/body/_12/while/MatMul"
  input: "sequential/lstm_1/PartitionedCall/while/body/_12/while/MatMul_1"
  attr {
    key: "T"
    value {
      type: DT_FLOAT
    }
  }
}
node {
  name: "sequential/lstm_1/PartitionedCall/while/body/_12/while/BiasAdd"
  op: "BiasAdd"
  input: "sequential/lstm_1/PartitionedCall/while/body/_12/while/add"
  input: "Func/sequential/lstm_1/PartitionedCall/while/body/_12/input/_95"
  attr {
    key: "T"
    value {
      type: DT_FLOAT
    }
  }
  attr {
    key: "data_format"
    value {
      s: "NHWC"
    }
  }
}
node {
  name: "sequential/lstm_1/PartitionedCall/while/body/_12/while/split"
  op: "Split"
  input: "sequential/lstm_1/PartitionedCall/while/body/_12/while/split/split_dim"
  input: "sequential/lstm_1/PartitionedCall/while/body/_12/while/BiasAdd"
  attr {
    key: "T"
    value {
      type: DT_FLOAT
    }
  }
  attr {
    key: "num_split"
    value {
      i: 4
    }
  }
}
node {
  name: "sequential/lstm_1/PartitionedCall/while/body/_12/while/Sigmoid_1"
  op: "Sigmoid"
  input: "sequential/lstm_1/PartitionedCall/while/body/_12/while/split:1"
  attr {
    key: "T"
    value {
      type: DT_FLOAT
    }
  }
}
node {
  name: "sequential/lstm_1/zeros_1/packed/1"
  op: "Const"
  attr {
    key: "dtype"
    value {
      type: DT_INT32
    }
  }
  attr {
    key: "value"
    value {
      tensor {
        dtype: DT_INT32
        tensor_shape {
        }
        int_val: 32
      }
    }
  }
}
node {
  name: "sequential/lstm_1/zeros_1/packed"
  op: "Pack"
  input: "sequential/lstm_1/strided_slice"
  input: "sequential/lstm_1/zeros_1/packed/1"
  attr {
    key: "N"
    value {
      i: 2
    }
  }
  attr {
    key: "T"
    value {
      type: DT_INT32
    }
  }
  attr {
    key: "axis"
    value {
      i: 0
    }
  }
}
node {
  name: "sequential/lstm_1/zeros_1/Const"
  op: "Const"
  attr {
    key: "dtype"
    value {
      type: DT_FLOAT
    }
  }
  attr {
    key: "value"
    value {
      tensor {
        dtype: DT_FLOAT
        tensor_shape {
        }
        float_val: 0.0
      }
    }
  }
}
node {
  name: "sequential/lstm_1/zeros_1"
  op: "Fill"
  input: "sequential/lstm_1/zeros_1/packed"
  input: "sequential/lstm_1/zeros_1/Const"
  attr {
    key: "T"
    value {
      type: DT_FLOAT
    }
  }
  attr {
    key: "index_type"
    value {
      type: DT_INT32
    }
  }
}
node {
  name: "Func/sequential/lstm_1/PartitionedCall/input/_2"
  op: "Identity"
  input: "sequential/lstm_1/zeros_1"
  attr {
    key: "T"
    value {
      type: DT_FLOAT
    }
  }
}
node {
  name: "sequential/lstm_1/PartitionedCall/while/enter/_18"
  op: "Enter"
  input: "Func/sequential/lstm_1/PartitionedCall/input/_2"
  attr {
    key: "T"
    value {
      type: DT_FLOAT
    }
  }
  attr {
    key: "frame_name"
    value {
      s: "sequential/lstm_1/PartitionedCall/while"
    }
  }
  attr {
    key: "is_constant"
    value {
      b: false
    }
  }
  attr {
    key: "parallel_iterations"
    value {
      i: 32
    }
  }
}
node {
  name: "unused_control_flow_input_18"
  op: "Placeholder"
  attr {
    key: "dtype"
    value {
      type: DT_FLOAT
    }
  }
  attr {
    key: "shape"
    value {
      shape {
        unknown_rank: true
      }
    }
  }
}
node {
  name: "sequential/lstm_1/PartitionedCall/while/body/_12/while/Identity_5"
  op: "Identity"
  input: "sequential/lstm_1/PartitionedCall/while/body/_12/while/add_1"
  attr {
    key: "T"
    value {
      type: DT_FLOAT
    }
  }
}
node {
  name: "Func/sequential/lstm_1/PartitionedCall/while/body/_12/output/_101"
  op: "Identity"
